<pad>	0
<unk>	0
<s>	0
</s>	0
▁a	-0
▁t	-1
in	-2
er	-3
es	-4
on	-5
or	-6
at	-7
he	-8
re	-9
▁s	-10
▁c	-11
en	-12
ed	-13
ion	-14
is	-15
it	-16
ing	-17
ic	-18
▁the	-19
an	-20
▁an	-21
▁p	-22
al	-23
le	-24
▁o	-25
▁d	-26
ro	-27
▁S	-28
et	-29
▁f	-30
▁b	-31
▁to	-32
ar	-33
▁A	-34
▁C	-35
▁in	-36
ec	-37
ig	-38
▁and	-39
ent	-40
ation	-41
us	-42
▁w	-43
▁m	-44
▁r	-45
▁•	-46
▁T	-47
▁of	-48
ac	-49
mp	-50
ll	-51
▁I	-52
ess	-53
▁is	-54
ur	-55
as	-56
igh	-57
ight	-58
ut	-59
▁n	-60
▁P	-61
▁D	-62
lo	-63
▁re	-64
st	-65
erv	-66
▁or	-67
▁th	-68
li	-69
▁2	-70
▁us	-71
▁co	-72
▁e	-73
▁Co	-74
▁(	-75
id	-76
ect	-77
▁res	-78
ack	-79
un	-80
wor	-81
ers	-82
ab	-83
il	-84
em	-85
if	-86
ul	-87
ity	-88
▁con	-89
imp	-90
▁M	-91
ct	-92
▁for	-93
work	-94
▁h	-95
ce	-96
iv	-97
ow	-98
▁pro	-99
▁R	-100
etwork	-101
01	-102
▁O	-103
ol	-104
▁E	-105
ly	-106
▁-	-107
▁be	-108
▁W	-109
ot	-110
lear	-111
am	-112
▁on	-113
ate	-114
learn	-115
ag	-116
py	-117
ter	-118
▁All	-119
ights	-120
▁The	-121
▁201	-122
▁v	-123
▁Simp	-124
▁L	-125
▁In	-126
5,	-127
▁Simpli	-128
▁Simplilearn	-129
▁rights	-130
▁reserv	-131
▁Copy	-132
▁reserved	-133
right	-134
▁2015,	-135
▁Copyright	-136
ch	-137
▁as	-138
▁are	-139
ain	-140
pp	-141
ata	-142
ith	-143
ire	-144
▁de	-145
qu	-146
ment	-147
▁B	-148
ir	-149
▁F	-150
pt	-151
▁l	-152
cess	-153
ay	-154
for	-155
▁st	-156
▁N	-157
om	-158
▁network	-159
▁1	-160
ication	-161
▁g	-162
and	-163
her	-164
▁can	-165
▁with	-166
ad	-167
yst	-168
est	-169
tt	-170
el	-171
ies	-172
ystem	-173
▁U	-174
ort	-175
im	-176
▁that	-177
▁H	-178
iz	-179
od	-180
ver	-181
mm	-182
▁data	-183
form	-184
ud	-185
our	-186
ure	-187
oc	-188
ist	-189
ecur	-190
ke	-191
ecurity	-192
▁ac	-193
are	-194
ial	-195
▁y	-196
▁by	-197
▁en	-198
ttack	-199
all	-200
ice	-201
▁comp	-202
▁ad	-203
▁ex	-204
▁wh	-205
ib	-206
▁su	-207
▁system	-208
ions	-209
ip	-210
▁tr	-211
rom	-212
▁dev	-213
▁lo	-214
ical	-215
able	-216
up	-217
▁V	-218
dr	-219
ile	-220
▁used	-221
ard	-222
ive	-223
▁–	-224
IN	-225
▁app	-226
▁it	-227
ware	-228
cr	-229
ult	-230
▁serv	-231
▁Con	-232
nect	-233
▁from	-234
formation	-235
se	-236
▁inc	-237
▁comm	-238
ame	-239
ices	-240
ou	-241
av	-242
fer	-243
▁cont	-244
▁attack	-245
hen	-246
ail	-247
ign	-248
ap	-249
age	-250
ich	-251
ine	-252
▁G	-253
ost	-254
▁access	-255
▁int	-256
yp	-257
ge	-258
▁Th	-259
um	-260
▁all	-261
dress	-262
AN	-263
ass	-264
▁OS	-265
ff	-266
ust	-267
ations	-268
lud	-269
han	-270
▁Ex	-271
int	-272
▁information	-273
end	-274
ther	-275
▁connect	-276
▁IP	-277
ement	-278
ill	-279
INT	-280
ach	-281
act	-282
▁man	-283
ho	-284
ys	-285
▁security	-286
ert	-287
ence	-288
ual	-289
ated	-290
▁un	-291
▁pr	-292
ub	-293
ans	-294
▁Network	-295
▁Pro	-296
lication	-297
▁sp	-298
▁al	-299
ypt	-300
art	-301
▁It	-302
▁we	-303
▁you	-304
▁5	-305
ident	-306
▁se	-307
▁ro	-308
00	-309
ols	-310
th	-311
▁includ	-312
ance	-313
per	-314
▁ne	-315
ous	-316
▁requ	-317
ets	-318
▁le	-319
▁address	-320
co	-321
02	-322
▁3	-323
vid	-324
ject	-325
.1	-326
ss	-327
▁use	-328
▁which	-329
tr	-330
ific	-331
gr	-332
▁An	-333
ization	-334
ck	-335
isk	-336
ER	-337
▁|	-338
of	-339
▁imp	-340
▁not	-341
rol	-342
ction	-343
out	-344
ors	-345
▁prot	-346
ant	-347
▁OSINT	-348
TI	-349
net	-350
▁Q	-351
▁Re	-352
ore	-353
ens	-354
▁ke	-355
ates	-356
uld	-357
ting	-358
ility	-359
▁this	-360
abl	-361
oint	-362
ase	-363
▁pack	-364
▁user	-365
▁will	-366
ory	-367
▁li	-368
ech	-369
▁devices	-370
ubl	-371
te	-372
ave	-373
log	-374
echn	-375
ces	-376
▁En	-377
▁application	-378
vent	-379
▁fo	-380
▁typ	-381
less	-382
▁your	-383
▁inter	-384
pl	-385
▁other	-386
eth	-387
▁per	-388
agement	-389
ased	-390
reat	-391
fig	-392
ite	-393
der	-394
one	-395
▁Wh	-396
op	-397
▁device	-398
▁Security	-399
▁up	-400
▁port	-401
gan	-402
▁This	-403
unt	-404
ures	-405
▁aut	-406
▁file	-407
AC	-408
ify	-409
TE	-410
ear	-411
crypt	-412
omain	-413
uter	-414
ious	-415
▁chan	-416
ps	-417
▁may	-418
llow	-419
▁det	-420
▁provid	-421
ak	-422
now	-423
▁he	-424
▁have	-425
▁process	-426
▁dis	-427
ide	-428
olog	-429
▁using	-430
TP	-431
du	-432
oft	-433
▁any	-434
UI	-435
ffic	-436
▁has	-437
iffer	-438
▁Data	-439
▁server	-440
ner	-441
▁ass	-442
ue	-443
xt	-444
pon	-445
▁pl	-446
NS	-447
irew	-448
▁systems	-449
ia	-450
▁4	-451
▁one	-452
▁K	-453
▁“	-454
ind	-455
wit	-456
▁St	-457
▁ab	-458
irewall	-459
ary	-460
ultip	-461
▁Comp	-462
CP	-463
ireless	-464
▁follow	-465
ime	-466
itor	-467
esson	-468
ome	-469
▁cor	-470
ace	-471
▁De	-472
so	-473
▁key	-474
▁organ	-475
ug	-476
▁●	-477
▁des	-478
lect	-479
▁fil	-480
ethod	-481
UIZ	-482
ast	-483
▁QUIZ	-484
▁X	-485
▁Tr	-486
ities	-487
__	-488
▁Man	-489
ification	-490
▁Ac	-491
▁ph	-492
▁act	-493
witch	-494
▁part	-495
olic	-496
ating	-497
▁sign	-498
▁when	-499
▁command	-500
ve	-501
ition	-502
plo	-503
hould	-504
▁such	-505
pr	-506
ource	-507
▁anal	-508
▁To	-509
▁pre	-510
ultiple	-511
min	-512
ection	-513
▁System	-514
con	-515
ows	-516
here	-517
▁log	-518
os	-519
▁0	-520
▁Cont	-521
▁Serv	-522
oftware	-523
▁at	-524
lement	-525
▁more	-526
▁control	-527
▁sub	-528
und	-529
ized	-530
▁bet	-531
▁should	-532
▁k	-533
▁into	-534
▁spec	-535
ms	-536
▁sec	-537
figur	-538
▁cr	-539
rect	-540
ake	-541
enc	-542
mit	-543
dent	-544
hent	-545
istr	-546
port	-547
▁commun	-548
▁Ad	-549
▁Us	-550
very	-551
▁techn	-552
ability	-553
ere	-554
nel	-555
▁tw	-556
▁wor	-557
▁Inter	-558
AP	-559
▁set	-560
▁differ	-561
ocol	-562
▁out	-563
▁over	-564
ok	-565
ced	-566
pen	-567
andard	-568
onitor	-569
vel	-570
▁Un	-571
▁8	-572
ber	-573
ible	-574
irect	-575
ese	-576
▁Inc	-577
ources	-578
▁ident	-579
▁trans	-580
▁if	-581
▁sc	-582
ulner	-583
▁also	-584
▁risk	-585
ysical	-586
we	-587
ish	-588
ten	-589
▁Attack	-590
▁software	-591
etr	-592
▁cre	-593
▁pass	-594
ob	-595
aus	-596
▁sh	-597
roug	-598
affic	-599
ublic	-600
▁encrypt	-601
▁fun	-602
▁rec	-603
erson	-604
▁web	-605
▁lesson	-606
▁correct	-607
▁organization	-608
word	-609
▁ind	-610
ments	-611
▁like	-612
atch	-613
▁def	-614
▁Prot	-615
▁host	-616
).	-617
▁av	-618
ener	-619
ning	-620
▁but	-621
ession	-622
▁following	-623
wer	-624
▁ag	-625
ateg	-626
ploit	-627
▁their	-628
▁packets	-629
SS	-630
ayer	-631
ween	-632
▁mod	-633
rough	-634
▁cert	-635
▁str	-636
▁val	-637
earch	-638
▁include	-639
figuration	-640
ifi	-641
▁uses	-642
▁between	-643
og	-644
ics	-645
ysis	-646
▁two	-647
ET	-648
▁Lin	-649
▁oper	-650
iss	-651
▁We	-652
heck	-653
ives	-654
hor	-655
▁50	-656
ower	-657
get	-658
▁cabl	-659
▁Access	-660
ID	-661
cept	-662
▁respon	-663
ie	-664
amp	-665
iqu	-666
▁Pr	-667
▁ch	-668
load	-669
alled	-670
▁traffic	-671
▁management	-672
de	-673
▁its	-674
▁request	-675
ws	-676
ally	-677
▁method	-678
▁loc	-679
▁through	-680
▁different	-681
ages	-682
▁multiple	-683
ks	-684
▁go	-685
ents	-686
▁Dis	-687
▁.	-688
loud	-689
▁hel	-690
▁mal	-691
▁inst	-692
▁need	-693
▁perform	-694
▁require	-695
llig	-696
▁ans	-697
▁switch	-698
▁Res	-699
▁stor	-700
hentication	-701
▁qu	-702
▁Comm	-703
▁attacks	-704
▁networks	-705
▁'	-706
▁/	-707
ays	-708
▁do	-709
▁507	-710
▁var	-711
bject	-712
▁same	-713
sid	-714
▁rout	-715
▁Ph	-716
ding	-717
▁202	-718
▁files	-719
▁answer	-720
IP	-721
▁10	-722
olut	-723
▁know	-724
▁avail	-725
▁computer	-726
▁firewall	-727
ues	-728
▁me	-729
ines	-730
▁App	-731
▁priv	-732
▁users	-733
▁rem	-734
ON	-735
OR	-736
▁Y	-737
own	-738
▁back	-739
▁supp	-740
lligence	-741
▁test	-742
▁each	-743
▁design	-744
ict	-745
its	-746
▁Aut	-747
▁For	-748
sider	-749
onitoring	-750
▁ent	-751
▁inte	-752
ges	-753
ick	-754
oot	-755
▁Su	-756
rame	-757
▁reg	-758
▁Ident	-759
▁level	-760
ipt	-761
ree	-762
▁te	-763
▁end	-764
▁Exam	-765
▁Which	-766
ologies	-767
▁vulner	-768
ble	-769
ocu	-770
crib	-771
ular	-772
▁att	-773
▁tools	-774
▁public	-775
▁threat	-776
▁password	-777
▁point	-778
▁polic	-779
▁standard	-780
▁6	-781
▁send	-782
▁what	-783
lock	-784
cript	-785
▁type	-786
▁Tools	-787
▁direct	-788
▁wireless	-789
▁&	-790
led	-791
uct	-792
tern	-793
▁bro	-794
▁inv	-795
▁person	-796
ong	-797
edia	-798
ified	-799
▁gener	-800
ep	-801
HCP	-802
ior	-803
arget	-804
ilities	-805
aph	-806
fers	-807
▁DNS	-808
▁Des	-809
ually	-810
▁they	-811
▁domain	-812
▁communication	-813
yz	-814
▁:	-815
ize	-816
▁em	-817
face	-818
▁Pre	-819
▁DHCP	-820
▁most	-821
ential	-822
▁types	-823
▁Control	-824
.0	-825
ise	-826
▁Al	-827
▁SO	-828
ibut	-829
iness	-830
▁called	-831
ds	-832
▁+	-833
ose	-834
▁caus	-835
▁appro	-836
▁specific	-837
▁time	-838
usiness	-839
OS	-840
▁If	-841
quip	-842
▁Anal	-843
AL	-844
ocial	-845
▁some	-846
▁where	-847
quipment	-848
▁Management	-849
bo	-850
untu	-851
▁Domain	-852
▁secure	-853
.2	-854
▁HT	-855
02.1	-856
ency	-857
lass	-858
▁iss	-859
▁num	-860
buntu	-861
▁these	-862
▁signal	-863
ote	-864
tain	-865
tings	-866
icious	-867
▁addresses	-868
ML	-869
APT	-870
ERA	-871
put	-872
▁Use	-873
▁lab	-874
▁often	-875
▁function	-876
▁j	-877
▁Ca	-878
▁Typ	-879
ocols	-880
▁must	-881
▁refer	-882
▁available	-883
CE	-884
IS	-885
ogr	-886
▁dec	-887
▁ins	-888
ected	-889
▁Risk	-890
▁than	-891
ograph	-892
▁Ubuntu	-893
▁prevent	-894
▁analysis	-895
▁implement	-896
▁encryption	-897
af	-898
ux	-899
iate	-900
iber	-901
▁Web	-902
▁upd	-903
▁comple	-904
▁exploit	-905
eg	-906
acy	-907
hed	-908
ative	-909
▁802.1	-910
ocument	-911
LAN	-912
TIA	-913
dra	-914
uil	-915
▁Ar	-916
other	-917
▁open	-918
▁target	-919
RA	-920
▁‘	-921
ecut	-922
▁how	-923
▁able	-924
▁equipment	-925
▁applications	-926
Xv	-927
ax	-928
TED	-929
ash	-930
etc	-931
pos	-932
▁run	-933
APTXv	-934
endra	-935
▁HERA	-936
▁Inte	-937
▁mess	-938
▁only	-939
▁work	-940
▁Linux	-941
▁WAPTXv	-942
▁change	-943
▁Caendra	-944
irt	-945
ull	-946
▁WAN	-947
▁col	-948
▁ver	-949
based	-950
ology	-951
▁services	-952
),	-953
US	-954
oss	-955
fter	-956
▁Lab	-957
ically	-958
▁Check	-959
▁based	-960
▁Address	-961
ph	-962
yn	-963
▁$	-964
ren	-965
▁ID	-966
▁Imp	-967
▁fir	-968
ledge	-969
▁proble	-970
▁another	-971
▁without	-972
▁physical	-973
▁connections	-974
ault	-975
aster	-976
ision	-977
▁CompTIA	-978
▁connection	-979
..	-980
to	-981
ful	-982
low	-983
▁Pl	-984
vers	-985
▁block	-986
▁servers	-987
▁Wireless	-988
▁including	-989
eed	-990
ode	-991
▁Or	-992
ames	-993
line	-994
▁HTTP	-995
▁code	-996
▁form	-997
▁solut	-998
ificate	-999
ey	-1000
▁7	-1001
rypt	-1002
plain	-1003
▁main	-1004
cedures	-1005
▁protocol	-1006
AS	-1007
wn	-1008
▁IN	-1009
hoot	-1010
▁hard	-1011
▁local	-1012
▁Object	-1013
▁Internet	-1014
MP	-1015
RP	-1016
▁J	-1017
▁On	-1018
cast	-1019
roup	-1020
ured	-1021
▁buil	-1022
▁dist	-1023
▁high	-1024
▁stat	-1025
irtual	-1026
ministr	-1027
▁packet	-1028
cc	-1029
ital	-1030
ivid	-1031
▁Rec	-1032
▁new	-1033
▁again	-1034
▁common	-1035
▁various	-1036
▁Protocol	-1037
bps	-1038
les	-1039
▁allow	-1040
▁within	-1041
▁support	-1042
▁authentication	-1043
10	-1044
▁2.	-1045
gram	-1046
irus	-1047
ample	-1048
cribe	-1049
ended	-1050
▁Pack	-1051
▁Techn	-1052
▁Identify	-1053
anc	-1054
aps	-1055
▁ar	-1056
▁MAC	-1057
▁TCP	-1058
▁inf	-1059
▁ter	-1060
▁Chan	-1061
▁band	-1062
▁down	-1063
▁name	-1064
▁sens	-1065
ishing	-1066
▁Trans	-1067
▁provide	-1068
AT	-1069
oS	-1070
ONS	-1071
ves	-1072
▁so	-1073
gine	-1074
count	-1075
iques	-1076
▁list	-1077
▁known	-1078
hooting	-1079
▁#	-1080
▁Sp	-1081
▁__	-1082
▁gu	-1083
ites	-1084
▁rel	-1085
▁Cert	-1086
▁ports	-1087
▁report	-1088
abilities	-1089
.)	-1090
ES	-1091
ex	-1092
fore	-1093
▁Key	-1094
▁ens	-1095
▁sim	-1096
roubl	-1097
▁help	-1098
▁Layer	-1099
▁limit	-1100
▁media	-1101
ination	-1102
roubles	-1103
▁allows	-1104
▁refers	-1105
▁storage	-1106
▁attacker	-1107
▁includes	-1108
▁configuration	-1109
aw	-1110
io	-1111
air	-1112
app	-1113
ded	-1114
mpt	-1115
▁AP	-1116
▁no	-1117
bers	-1118
ging	-1119
▁Det	-1120
▁seg	-1121
▁them	-1122
ctions	-1123
dition	-1124
igital	-1125
horized	-1126
▁execut	-1127
ED	-1128
ires	-1129
▁com	-1130
▁leg	-1131
etric	-1132
▁507-	-1133
▁Know	-1134
▁reco	-1135
▁under	-1136
▁802.11	-1137
▁Firewall	-1138
▁Bl	-1139
▁XML	-1140
▁etc	-1141
TIONS	-1142
ffect	-1143
uring	-1144
indows	-1145
▁event	-1146
otential	-1147
▁Service	-1148
IC	-1149
ru	-1150
’.	-1151
ITP	-1152
▁Ass	-1153
▁Rem	-1154
▁opt	-1155
ivity	-1156
lectr	-1157
obile	-1158
▁Rout	-1159
▁What	-1160
▁wire	-1161
acking	-1162
adcast	-1163
▁Cloud	-1164
▁Point	-1165
▁group	-1166
▁cables	-1167
▁service	-1168
▁document	-1169
▁settings	-1170
▁resources	-1171
▁Information	-1172
als	-1173
aut	-1174
vir	-1175
▁ev	-1176
mplo	-1177
▁bre	-1178
itive	-1179
▁INTE	-1180
▁mach	-1181
▁about	-1182
▁email	-1183
▁there	-1184
ividual	-1185
▁cabling	-1186
AR	-1187
ee	-1188
▁IT	-1189
hell	-1190
ilar	-1191
miss	-1192
ness	-1193
▁cat	-1194
▁pat	-1195
ering	-1196
estig	-1197
ingle	-1198
viron	-1199
▁Open	-1200
▁They	-1201
▁look	-1202
▁recor	-1203
▁Threat	-1204
▁Systems	-1205
▁contain	-1206
▁sources	-1207
▁protocols	-1208
▁Objectives	-1209
roubleshooting	-1210
ix	-1211
eat	-1212
irc	-1213
ret	-1214
uss	-1215
arch	-1216
ases	-1217
idth	-1218
stand	-1219
▁VLAN	-1220
▁power	-1221
▁Physical	-1222
▁=	-1223
orm	-1224
red	-1225
▁fr	-1226
ared	-1227
▁who	-1228
esent	-1229
▁poss	-1230
ention	-1231
▁Types	-1232
▁being	-1233
▁result	-1234
▁router	-1235
istribut	-1236
▁Connect	-1237
▁monitoring	-1238
MAN	-1239
duct	-1240
▁Log	-1241
▁Mod	-1242
mploy	-1243
width	-1244
▁conc	-1245
▁many	-1246
▁learn	-1247
jection	-1248
▁subnet	-1249
▁against	-1250
▁channel	-1251
▁Knowledge	-1252
▁interface	-1253
▁malicious	-1254
▁potential	-1255
ask	-1256
▁OW	-1257
▁Sc	-1258
ator	-1259
▁cli	-1260
▁find	-1261
itical	-1262
ang	-1263
▁br	-1264
ient	-1265
roll	-1266
▁Can	-1267
▁Dev	-1268
▁TAC	-1269
▁You	-1270
point	-1271
▁meas	-1272
▁vers	-1273
ayload	-1274
▁Frame	-1275
▁valid	-1276
▁Explain	-1277
▁100	-1278
▁IPv	-1279
▁___	-1280
ather	-1281
ecure	-1282
usion	-1283
▁2020	-1284
▁Port	-1285
▁Priv	-1286
▁cons	-1287
▁Polic	-1288
▁incident	-1289
DP	-1290
LU	-1291
▁*	-1292
FOR	-1293
ade	-1294
edi	-1295
ved	-1296
ange	-1297
ique	-1298
ross	-1299
ustr	-1300
▁min	-1301
grity	-1302
icate	-1303
▁Oper	-1304
▁cent	-1305
▁does	-1306
atform	-1307
ucture	-1308
▁methods	-1309
▁Describe	-1310
▁Application	-1311
EN	-1312
par	-1313
ule	-1314
▁Ch	-1315
▁Sh	-1316
cont	-1317
iven	-1318
pect	-1319
▁SOLU	-1320
▁Respon	-1321
▁comput	-1322
▁employ	-1323
▁issues	-1324
▁Windows	-1325
▁account	-1326
▁default	-1327
▁business	-1328
▁consider	-1329
▁required	-1330
▁research	-1331
▁SOLUTIONS	-1332
▁individual	-1333
▁intelligence	-1334
XE	-1335
ING	-1336
gth	-1337
iew	-1338
requ	-1339
▁bas	-1340
▁own	-1341
▁via	-1342
mmary	-1343
liance	-1344
▁Power	-1345
▁number	-1346
▁program	-1347
▁similar	-1348
-1	-1349
arr	-1350
lop	-1351
▁1.	-1352
▁sm	-1353
imum	-1354
ined	-1355
▁Mal	-1356
▁occ	-1357
▁off	-1358
▁ste	-1359
▁was	-1360
ERFOR	-1361
ludes	-1362
ories	-1363
urren	-1364
▁tool	-1365
aining	-1366
▁cable	-1367
▁deter	-1368
▁detect	-1369
▁bandwidth	-1370
55	-1371
CAL	-1372
ink	-1373
ymm	-1374
▁Te	-1375
▁cy	-1376
ands	-1377
atew	-1378
ules	-1379
▁dep	-1380
▁pur	-1381
▁When	-1382
▁rece	-1383
▁quick	-1384
▁Method	-1385
▁Social	-1386
▁policy	-1387
▁source	-1388
ymmetric	-1389
▁malware	-1390
▁session	-1391
▁"	-1392
▁x	-1393
GRA	-1394
ted	-1395
▁--	-1396
▁AI	-1397
▁la	-1398
ETER	-1399
ails	-1400
cuss	-1401
name	-1402
▁Reg	-1403
▁bot	-1404
MANCE	-1405
TICAL	-1406
▁plan	-1407
GRATED	-1408
▁cause	-1409
▁cloud	-1410
▁PERFOR	-1411
▁Packet	-1412
▁analyz	-1413
▁protect	-1414
▁segment	-1415
▁TACTICAL	-1416
▁controls	-1417
▁provides	-1418
▁response	-1419
▁functions	-1420
▁PERFORMANCE	-1421
▁Intelligence	-1422
SL	-1423
com	-1424
nal	-1425
▁Qu	-1426
▁ARP	-1427
▁Bas	-1428
▁Ins	-1429
ators	-1430
ipher	-1431
▁Labs	-1432
▁char	-1433
▁webs	-1434
▁Ether	-1435
▁while	-1436
lection	-1437
▁Server	-1438
▁Switch	-1439
▁import	-1440
▁comprom	-1441
▁version	-1442
▁identify	-1443
▁transmit	-1444
▁administr	-1445
AB	-1446
OM	-1447
QL	-1448
ef	-1449
NED	-1450
USA	-1451
iff	-1452
▁Act	-1453
▁Bro	-1454
▁bec	-1455
▁mis	-1456
aking	-1457
▁dest	-1458
▁next	-1459
ETERAN	-1460
▁OWNED	-1461
▁There	-1462
▁These	-1463
essment	-1464
ographic	-1465
▁Summary	-1466
▁VETERAN	-1467
▁environ	-1468
▁designed	-1469
▁policies	-1470
▁possible	-1471
▁requests	-1472
▁INTEGRATED	-1473
▁certificate	-1474
92	-1475
Hz	-1476
PS	-1477
pe	-1478
ark	-1479
▁01	-1480
▁dr	-1481
ircu	-1482
▁beh	-1483
cepts	-1484
▁hash	-1485
▁rele	-1486
esting	-1487
▁invol	-1488
▁separ	-1489
ategory	-1490
▁search	-1491
▁single	-1492
▁content	-1493
▁procedures	-1494
gor	-1495
gre	-1496
ond	-1497
▁Go	-1498
▁es	-1499
▁ob	-1500
ials	-1501
▁Def	-1502
▁Host	-1503
▁Some	-1504
▁best	-1505
gorith	-1506
▁autom	-1507
▁fiber	-1508
▁helps	-1509
▁impro	-1510
ational	-1511
ulation	-1512
▁before	-1513
▁compon	-1514
ww	-1515
iel	-1516
▁02	-1517
▁As	-1518
atab	-1519
base	-1520
vern	-1521
▁way	-1522
tering	-1523
▁first	-1524
▁pract	-1525
▁value	-1526
vidence	-1527
▁backup	-1528
▁compan	-1529
▁Attacks	-1530
▁Encrypt	-1531
▁private	-1532
▁processes	-1533
68	-1534
ld	-1535
ASK	-1536
elf	-1537
pec	-1538
top	-1539
▁IC	-1540
▁Sn	-1541
ists	-1542
text	-1543
▁Fil	-1544
▁SQL	-1545
▁Wor	-1546
▁fin	-1547
round	-1548
▁atte	-1549
ternal	-1550
urrent	-1551
▁layer	-1552
▁order	-1553
▁message	-1554
▁problem	-1555
▁routing	-1556
▁usually	-1557
▁hardware	-1558
DM	-1559
ged	-1560
ili	-1561
let	-1562
not	-1563
▁Be	-1564
atic	-1565
side	-1566
ward	-1567
▁mem	-1568
▁ret	-1569
▁deve	-1570
▁line	-1571
▁make	-1572
▁After	-1573
▁patch	-1574
▁trust	-1575
▁electr	-1576
ulations	-1577
▁install	-1578
▁Standard	-1579
64	-1580
oid	-1581
org	-1582
ove	-1583
ror	-1584
▁Is	-1585
▁er	-1586
▁par	-1587
ature	-1588
ength	-1589
mware	-1590
▁Back	-1591
▁norm	-1592
priate	-1593
▁could	-1594
▁sends	-1595
▁speed	-1596
▁ensure	-1597
▁script	-1598
▁current	-1599
▁respons	-1600
gineering	-1601
▁Ethernet	-1602
▁operating	-1603
▁solutions	-1604
▁Monitoring	-1605
▁techniques	-1606
IT	-1607
xy	-1608
ily	-1609
ots	-1610
▁Wi	-1611
▁sn	-1612
aces	-1613
itig	-1614
▁Here	-1615
▁three	-1616
▁maintain	-1617
▁sensitive	-1618
▁standards	-1619
6)	-1620
RF	-1621
me	-1622
sh	-1623
old	-1624
▁vs	-1625
arge	-1626
vert	-1627
▁get	-1628
▁see	-1629
contd	-1630
echan	-1631
▁Prep	-1632
▁TASK	-1633
▁hand	-1634
▁long	-1635
▁manag	-1636
▁occur	-1637
▁Lesson	-1638
▁Search	-1639
tructure	-1640
▁learned	-1641
▁vulnerabilities	-1642
000	-1643
ier	-1644
▁Av	-1645
ause	-1646
ideo	-1647
igin	-1648
ings	-1649
ktop	-1650
read	-1651
▁Bob	-1652
▁Sub	-1653
▁eas	-1654
▁est	-1655
▁exp	-1656
▁top	-1657
ecess	-1658
▁File	-1659
▁Requ	-1660
▁alert	-1661
▁every	-1662
▁rules	-1663
▁assign	-1664
▁during	-1665
▁effect	-1666
▁points	-1667
izations	-1668
▁addition	-1669
▁investig	-1670
-00	-1671
arm	-1672
ken	-1673
ras	-1674
▁CA	-1675
▁Cy	-1676
▁US	-1677
rupt	-1678
ving	-1679
board	-1680
ially	-1681
▁Inst	-1682
▁pair	-1683
ateway	-1684
fident	-1685
source	-1686
ibility	-1687
▁Vulner	-1688
▁create	-1689
▁impact	-1690
▁partic	-1691
▁proper	-1692
▁updates	-1693
▁Analysis	-1694
▁Multiple	-1695
EC	-1696
EL	-1697
EM	-1698
IDS	-1699
ety	-1700
idd	-1701
▁Em	-1702
imes	-1703
play	-1704
▁Ind	-1705
▁red	-1706
▁rev	-1707
10-00	-1708
▁Link	-1709
▁comb	-1710
▁fail	-1711
▁intr	-1712
▁logs	-1713
▁check	-1714
▁develop	-1715
▁critical	-1716
▁evidence	-1717
▁switches	-1718
▁Implement	-1719
▁broadcast	-1720
▁completing	-1721
▁Authentication	-1722
AD	-1723
PN	-1724
RL	-1725
ext	-1726
ros	-1727
▁03	-1728
ader	-1729
duce	-1730
pper	-1731
ables	-1732
enetr	-1733
ifies	-1734
▁2025	-1735
▁Arch	-1736
▁both	-1737
▁Using	-1738
▁class	-1739
▁crypt	-1740
▁table	-1741
10-006)	-1742
▁object	-1743
▁Command	-1744
▁Discuss	-1745
▁attempt	-1746
▁virtual	-1747
fidential	-1748
▁Category	-1749
▁concludes	-1750
rastructure	-1751
EE	-1752
Fi	-1753
In	-1754
apt	-1755
▁12	-1756
▁Lo	-1757
ache	-1758
akes	-1759
back	-1760
▁IDS	-1761
▁Int	-1762
▁XSS	-1763
itect	-1764
▁root	-1765
lation	-1766
▁Crypt	-1767
▁frame	-1768
▁given	-1769
▁prior	-1770
▁recap	-1771
▁Change	-1772
▁Commun	-1773
▁remote	-1774
▁secret	-1775
▁collect	-1776
▁machine	-1777
▁distance	-1778
▁referred	-1779
▁Detection	-1780
▁generally	-1781
▁operations	-1782
▁protection	-1783
.3	-1784
LS	-1785
ute	-1786
▁ed	-1787
▁wo	-1788
Mbps	-1789
lood	-1790
ooth	-1791
ount	-1792
▁VPN	-1793
▁fac	-1794
ernel	-1795
▁Pass	-1796
▁User	-1797
▁prof	-1798
icated	-1799
▁Class	-1800
▁circu	-1801
▁Analyz	-1802
▁Device	-1803
▁config	-1804
▁establ	-1805
▁necess	-1806
▁social	-1807
dentials	-1808
fficient	-1809
▁Business	-1810
▁commands	-1811
authorized	-1812
▁connected	-1813
▁Encryption	-1814
▁particular	-1815
▁environment	-1816
:1	-1817
▁,	-1818
SSP	-1819
ams	-1820
ral	-1821
uet	-1822
val	-1823
ched	-1824
▁due	-1825
▁non	-1826
ector	-1827
ustom	-1828
▁gain	-1829
▁sent	-1830
▁then	-1831
▁well	-1832
echanis	-1833
uetooth	-1834
▁cannot	-1835
▁example	-1836
▁special	-1837
▁testing	-1838
▁firewalls	-1839
▁Configuration	-1840
PA	-1841
GHz	-1842
ell	-1843
eop	-1844
los	-1845
roj	-1846
uch	-1847
▁By	-1848
▁CI	-1849
▁NO	-1850
▁SN	-1851
▁wr	-1852
TION	-1853
amet	-1854
hack	-1855
quis	-1856
urse	-1857
▁192	-1858
▁How	-1859
▁Loc	-1860
▁Red	-1861
▁XXE	-1862
▁adv	-1863
avior	-1864
▁Intr	-1865
▁Supp	-1866
anning	-1867
elines	-1868
istent	-1869
▁hosts	-1870
atabase	-1871
itecture	-1872
▁Session	-1873
▁decrypt	-1874
▁privacy	-1875
▁strateg	-1876
▁Bluetooth	-1877
▁detection	-1878
▁appropriate	-1879
▁unauthorized	-1880
87	-1881
els	-1882
lic	-1883
oci	-1884
oof	-1885
str	-1886
▁3.	-1887
▁IS	-1888
▁gr	-1889
band	-1890
pose	-1891
wser	-1892
▁Are	-1893
▁Fir	-1894
▁Inf	-1895
▁Per	-1896
▁Set	-1897
▁Top	-1898
▁som	-1899
ality	-1900
allen	-1901
thiss	-1902
▁Uses	-1903
▁carr	-1904
▁link	-1905
aximum	-1906
▁Under	-1907
▁after	-1908
▁frequ	-1909
duction	-1910
ificant	-1911
thissite	-1912
▁Digital	-1913
▁changes	-1914
▁payload	-1915
▁threats	-1916
▁Consider	-1917
▁building	-1918
▁platform	-1919
▁separate	-1920
▁directory	-1921
▁technologies	-1922
▁vulnerability	-1923
//	-1924
oT	-1925
ger	-1926
lob	-1927
▁Cr	-1928
ense	-1929
ling	-1930
time	-1931
▁Any	-1932
▁Off	-1933
▁enc	-1934
▁now	-1935
OSINT	-1936
aches	-1937
anced	-1938
eline	-1939
ribut	-1940
verse	-1941
▁been	-1942
▁case	-1943
▁disc	-1944
▁done	-1945
▁feat	-1946
▁hack	-1947
▁just	-1948
ensive	-1949
▁clear	-1950
▁input	-1951
▁mitig	-1952
▁sever	-1953
▁would	-1954
ference	-1955
▁assets	-1956
▁author	-1957
▁Testing	-1958
▁Virtual	-1959
▁monitor	-1960
▁paramet	-1961
▁routers	-1962
▁download	-1963
▁mechanis	-1964
▁personal	-1965
enetration	-1966
▁Intrusion	-1967
▁distribut	-1968
▁important	-1969
▁Understand	-1970
▁components	-1971
CS	-1972
cle	-1973
med	-1974
▁CS	-1975
ever	-1976
▁tag	-1977
cover	-1978
eople	-1979
ictim	-1980
iting	-1981
tract	-1982
▁Time	-1983
▁path	-1984
▁real	-1985
▁take	-1986
▁Fiber	-1987
▁areas	-1988
▁those	-1989
▁Common	-1990
▁Public	-1991
▁Source	-1992
▁client	-1993
▁likely	-1994
▁Process	-1995
▁running	-1996
▁subject	-1997
▁Incident	-1998
▁Response	-1999
▁activity	-2000
▁endpoint	-2001
▁problems	-2002
▁compromis	-2003
▁collection	-2004
▁significant	-2005
):	-2006
LL	-2007
gn	-2008
ees	-2009
hip	-2010
ied	-2011
urn	-2012
▁AC	-2013
▁PA	-2014
▁fl	-2015
.168	-2016
pass	-2017
ynam	-2018
▁Seg	-2019
▁URL	-2020
▁Ver	-2021
▁saf	-2022
▁List	-2023
▁Main	-2024
▁Reco	-2025
▁exam	-2026
▁free	-2027
llision	-2028
reating	-2029
▁Policy	-2030
▁Report	-2031
▁normal	-2032
▁outside	-2033
▁records	-2034
▁Services	-2035
▁algorith	-2036
▁channels	-2037
▁contains	-2038
▁internal	-2039
▁location	-2040
▁solution	-2041
▁Firewalls	-2042
hackthissite	-2043
▁credentials	-2044
▁requirements	-2045
-6	-2046
23	-2047
54	-2048
RE	-2049
uc	-2050
bed	-2051
inu	-2052
▁RJ	-2053
▁SY	-2054
▁Up	-2055
lies	-2056
▁Den	-2057
▁GET	-2058
▁LAN	-2059
▁Leg	-2060
▁sus	-2061
▁vis	-2062
aming	-2063
ances	-2064
izing	-2065
unter	-2066
▁Hard	-2067
▁deli	-2068
▁read	-2069
▁repl	-2070
▁text	-2071
▁Alice	-2072
▁CISSP	-2073
▁activ	-2074
▁indic	-2075
▁phone	-2076
▁risks	-2077
▁state	-2078
▁Backup	-2079
▁Mobile	-2080
▁across	-2081
▁verify	-2082
missions	-2083
pecially	-2084
▁certain	-2085
▁digital	-2086
▁related	-2087
▁controll	-2088
▁firmware	-2089
▁requires	-2090
▁computers	-2091
▁filtering	-2092
▁integrity	-2093
bersecurity	-2094
▁organizations	-2095
▁communications	-2096
ME	-2097
be	-2098
br	-2099
▁SS	-2100
▁cl	-2101
▁ut	-2102
cope	-2103
oice	-2104
uman	-2105
xing	-2106
▁LAB	-2107
edium	-2108
ences	-2109
iring	-2110
prise	-2111
thers	-2112
▁Cons	-2113
▁Each	-2114
▁Name	-2115
▁copy	-2116
▁even	-2117
▁good	-2118
▁labs	-2119
▁lock	-2120
▁loss	-2121
▁pres	-2122
▁site	-2123
▁Cable	-2124
▁found	-2125
▁incre	-2126
▁names	-2127
▁range	-2128
▁Remote	-2129
▁custom	-2130
▁govern	-2131
▁kernel	-2132
▁unique	-2133
▁192.168	-2134
▁company	-2135
▁details	-2136
▁Recovery	-2137
▁properly	-2138
▁Injection	-2139
▁encrypted	-2140
▁necessary	-2141
▁additional	-2142
11	-2143
ij	-2144
▁9	-2145
ern	-2146
TING	-2147
ards	-2148
comp	-2149
enef	-2150
ploy	-2151
▁Iss	-2152
▁acc	-2153
▁cap	-2154
aling	-2155
ening	-2156
level	-2157
▁laws	-2158
▁size	-2159
bedded	-2160
▁might	-2161
▁start	-2162
▁video	-2163
▁works	-2164
▁depend	-2165
▁mobile	-2166
▁recogn	-2167
ificates	-2168
▁Install	-2169
▁because	-2170
▁conduct	-2171
▁Research	-2172
▁intended	-2173
▁messages	-2174
▁provided	-2175
▁communicate	-2176
▁Communication	-2177
▁\	-2178
IEM	-2179
cap	-2180
▁No	-2181
▁Po	-2182
▁TH	-2183
ocus	-2184
▁Inv	-2185
▁Opt	-2186
▁aud	-2187
ining	-2188
▁Mult	-2189
▁SNMP	-2190
▁page	-2191
etrics	-2192
▁Organ	-2193
▁Other	-2194
▁large	-2195
▁place	-2196
mission	-2197
▁cipher	-2198
▁events	-2199
▁receiv	-2200
▁stored	-2201
▁victim	-2202
wareness	-2203
▁Malware	-2204
▁Prevent	-2205
▁created	-2206
▁maximum	-2207
▁privile	-2208
quisition	-2209
▁phishing	-2210
▁establish	-2211
▁passwords	-2212
▁Architecture	-2213
AA	-2214
FI	-2215
MI	-2216
OO	-2217
gg	-2218
ym	-2219
dro	-2220
omm	-2221
the	-2222
▁Fr	-2223
▁PR	-2224
▁am	-2225
ancy	-2226
ason	-2227
ilit	-2228
ogle	-2229
ully	-2230
▁Cre	-2231
▁DoS	-2232
▁dam	-2233
▁dem	-2234
▁rad	-2235
▁sur	-2236
▁try	-2237
ither	-2238
print	-2239
▁Sign	-2240
▁Stor	-2241
▁keep	-2242
▁repr	-2243
▁enter	-2244
▁legal	-2245
▁login	-2246
▁wired	-2247
▁Direct	-2248
▁better	-2249
▁entire	-2250
▁gather	-2251
▁memory	-2252
▁others	-2253
▁website	-2254
▁username	-2255
▁framework	-2256
▁injection	-2257
▁protected	-2258
▁especially	-2259
gh	-2260
▁Z	-2261
DoS	-2262
cal	-2263
man	-2264
▁im	-2265
aced	-2266
ison	-2267
mine	-2268
ters	-2269
ways	-2270
▁Net	-2271
▁Str	-2272
▁den	-2273
▁ext	-2274
acter	-2275
faces	-2276
imate	-2277
thing	-2278
usted	-2279
uture	-2280
▁area	-2281
▁base	-2282
▁made	-2283
▁mode	-2284
▁prim	-2285
▁rest	-2286
▁Gener	-2287
▁break	-2288
▁categ	-2289
▁match	-2290
▁restr	-2291
▁virus	-2292
▁Define	-2293
▁Issues	-2294
▁itself	-2295
▁needed	-2296
▁origin	-2297
▁static	-2298
▁Privacy	-2299
▁disrupt	-2300
▁gateway	-2301
▁several	-2302
▁Concepts	-2303
▁database	-2304
▁external	-2305
▁involves	-2306
▁transfer	-2307
▁activities	-2308
▁authorized	-2309
▁designated	-2310
▁understand	-2311
▁vulnerable	-2312
▁Certificate	-2313
▁regulations	-2314
▁Technologies	-2315
▁confidential	-2316
▁Considerations	-2317
-2	-2318
CI	-2319
OU	-2320
fe	-2321
ft	-2322
ts	-2323
DAP	-2324
inc	-2325
ron	-2326
▁ST	-2327
alth	-2328
asks	-2329
ater	-2330
enar	-2331
ming	-2332
ough	-2333
▁Bot	-2334
▁Col	-2335
▁Met	-2336
▁low	-2337
aving	-2338
ivers	-2339
lobal	-2340
match	-2341
▁2019	-2342
▁High	-2343
▁Over	-2344
▁Troj	-2345
▁lead	-2346
▁less	-2347
▁scre	-2348
▁simp	-2349
covery	-2350
ements	-2351
▁print	-2352
▁proxy	-2353
▁shell	-2354
▁smart	-2355
earning	-2356
ography	-2357
ributes	-2358
▁action	-2359
▁inject	-2360
▁shared	-2361
▁string	-2362
▁Exploit	-2363
▁Request	-2364
▁clients	-2365
▁industr	-2366
▁results	-2367
▁identity	-2368
▁Interface	-2369
▁technical	-2370
▁Procedures	-2371
▁compliance	-2372
▁Engineering	-2373
▁destination	-2374
▁performance	-2375
37	-2376
MS	-2377
ND	-2378
ml	-2379
hem	-2380
php	-2381
iliz	-2382
▁End	-2383
▁air	-2384
Based	-2385
aging	-2386
atell	-2387
atory	-2388
▁SSID	-2389
▁With	-2390
▁fact	-2391
▁mult	-2392
▁task	-2393
ensics	-2394
isions	-2395
istics	-2396
unting	-2397
▁Patch	-2398
▁Virus	-2399
▁below	-2400
▁exist	-2401
▁flood	-2402
▁minim	-2403
▁needs	-2404
▁steps	-2405
▁tasks	-2406
undancy	-2407
▁Provid	-2408
▁active	-2409
▁associ	-2410
▁format	-2411
▁reason	-2412
▁Routing	-2413
▁central	-2414
▁challen	-2415
▁circuit	-2416
▁execute	-2417
▁reports	-2418
▁signals	-2419
▁Learning	-2420
▁Phishing	-2421
▁Settings	-2422
▁determin	-2423
▁directly	-2424
▁machines	-2425
▁measures	-2426
▁Protocols	-2427
▁Transport	-2428
▁installed	-2429
▁assessment	-2430
▁profession	-2431
▁penetration	-2432
▁availability	-2433
▁cryptographic	-2434
CR	-2435
IG	-2436
OD	-2437
aS	-2438
do	-2439
CON	-2440
alk	-2441
bit	-2442
ird	-2443
▁Ge	-2444
▁Gr	-2445
.0.0	-2446
▁...	-2447
▁NOT	-2448
▁UDP	-2449
arant	-2450
ently	-2451
iddle	-2452
phone	-2453
▁LDAP	-2454
▁Your	-2455
▁call	-2456
▁vari	-2457
▁vend	-2458
estion	-2459
ynamic	-2460
▁enhan	-2461
▁scope	-2462
▁small	-2463
▁breach	-2464
▁future	-2465
▁occurs	-2466
▁update	-2467
▁useful	-2468
▁Example	-2469
▁allowed	-2470
▁context	-2471
▁domains	-2472
▁present	-2473
▁purpose	-2474
▁Policies	-2475
▁employee	-2476
▁restrict	-2477
▁Distribut	-2478
▁Integrity	-2479
▁Protection	-2480
▁processing	-2481
▁compromised	-2482
▁Vulnerability	-2483
▁certification	-2484
▁troubleshooting	-2485
DN	-2486
Us	-2487
ew	-2488
ump	-2489
▁Br	-2490
▁He	-2491
▁Sm	-2492
▁sk	-2493
▁vi	-2494
abic	-2495
akeh	-2496
dict	-2497
lete	-2498
umer	-2499
▁Adv	-2500
▁NIC	-2501
▁PAI	-2502
▁Ret	-2503
▁USB	-2504
eries	-2505
▁Agre	-2506
▁___.	-2507
▁keys	-2508
▁post	-2509
▁term	-2510
▁ways	-2511
adding	-2512
ectors	-2513
ething	-2514
▁avoid	-2515
▁benef	-2516
▁plain	-2517
▁shows	-2518
▁terms	-2519
▁Arabic	-2520
▁Theory	-2521
▁damage	-2522
▁obtain	-2523
▁online	-2524
▁termin	-2525
atellite	-2526
irection	-2527
▁defined	-2528
▁desktop	-2529
▁failure	-2530
▁improve	-2531
▁patches	-2532
ersistent	-2533
▁accounts	-2534
▁assigned	-2535
▁behavior	-2536
▁commonly	-2537
▁character	-2538
▁performed	-2539
▁Assessment	-2540
▁configured	-2541
▁transmitted	-2542
▁Troubleshooting	-2543
36	-2544
PL	-2545
\\	-2546
ng	-2547
hot	-2548
por	-2549
pro	-2550
rep	-2551
res	-2552
▁16	-2553
▁Ev	-2554
▁bo	-2555
.255	-2556
angu	-2557
cing	-2558
ited	-2559
over	-2560
▁Att	-2561
▁Ent	-2562
▁Not	-2563
▁OSI	-2564
▁our	-2565
▁tab	-2566
Gbase	-2567
anner	-2568
ccess	-2569
icros	-2570
oneyp	-2571
▁Hash	-2572
▁ICMP	-2573
▁Quiz	-2574
▁Rule	-2575
▁SIEM	-2576
▁fiel	-2577
abling	-2578
apping	-2579
asures	-2580
change	-2581
encies	-2582
itions	-2583
oofing	-2584
▁Legal	-2585
▁Media	-2586
▁cyber	-2587
▁usage	-2588
acement	-2589
connect	-2590
itimate	-2591
▁Secure	-2592
▁accept	-2593
▁deploy	-2594
▁either	-2595
▁intrud	-2596
▁levels	-2597
▁longer	-2598
▁second	-2599
▁Payload	-2600
▁Segment	-2601
▁Storage	-2602
▁describ	-2603
▁element	-2604
▁priorit	-2605
▁sending	-2606
▁OSINTCON	-2607
▁Training	-2608
▁Administr	-2609
▁employees	-2610
▁reference	-2611
▁accessible	-2612
▁difference	-2613
configuration	-2614
▁Multiplexing	-2615
▁Certification	-2616
▁implementation	-2617
▁infrastructure	-2618
En	-2619
na	-2620
IST	-2621
\//	-2622
ath	-2623
erg	-2624
iod	-2625
ord	-2626
▁1:	-2627
▁20	-2628
▁25	-2629
▁GB	-2630
▁Se	-2631
▁Tw	-2632
▁ge	-2633
avel	-2634
ones	-2635
site	-2636
ynch	-2637
▁Egg	-2638
▁Exp	-2639
▁Fun	-2640
▁IoT	-2641
▁Low	-2642
▁Non	-2643
▁One	-2644
▁Out	-2645
▁Ter	-2646
▁Upd	-2647
▁aim	-2648
▁arr	-2649
ARTED	-2650
alanc	-2651
droid	-2652
icast	-2653
isted	-2654
older	-2655
poses	-2656
▁Down	-2657
▁Most	-2658
▁Spec	-2659
▁core	-2660
▁goal	-2661
▁mask	-2662
▁much	-2663
▁publ	-2664
▁remo	-2665
▁retr	-2666
amples	-2667
config	-2668
etimes	-2669
olders	-2670
▁Basic	-2671
▁Files	-2672
▁First	-2673
▁State	-2674
▁error	-2675
▁means	-2676
▁overw	-2677
▁sites	-2678
ynchron	-2679
▁Person	-2680
▁always	-2681
▁assess	-2682
▁copper	-2683
▁inside	-2684
▁recomm	-2685
▁scenar	-2686
icrosoft	-2687
▁GETTING	-2688
▁STARTED	-2689
▁display	-2690
▁product	-2691
▁packages	-2692
▁recovery	-2693
▁Attacking	-2694
▁Broadcast	-2695
▁Framework	-2696
▁determine	-2697
▁personnel	-2698
▁relations	-2699
▁represent	-2700
▁technique	-2701
▁Techniques	-2702
▁networking	-2703
▁Identifying	-2704
IM	-2705
go	-2706
▁!	-2707
aff	-2708
hel	-2709
ian	-2710
ody	-2711
▁Ab	-2712
aves	-2713
caps	-2714
greg	-2715
ills	-2716
iter	-2717
lied	-2718
▁2.4	-2719
▁Cat	-2720
▁cho	-2721
▁met	-2722
▁vol	-2723
vious	-2724
▁Mess	-2725
▁Post	-2726
▁Take	-2727
▁Used	-2728
▁boot	-2729
▁capt	-2730
▁fire	-2731
▁init	-2732
▁rule	-2733
▁susp	-2734
▁true	-2735
action	-2736
encing	-2737
inuity	-2738
▁Avail	-2739
▁Email	-2740
▁enfor	-2741
▁focus	-2742
uration	-2743
▁Medium	-2744
▁Router	-2745
▁editor	-2746
▁frames	-2747
▁length	-2748
▁people	-2749
▁period	-2750
▁review	-2751
▁stakeh	-2752
▁wiring	-2753
▁authent	-2754
▁complex	-2755
▁numbers	-2756
roduction	-2757
▁Disaster	-2758
▁Document	-2759
▁approach	-2760
▁features	-2761
▁handling	-2762
▁training	-2763
▁websites	-2764
▁Agreement	-2765
▁Standards	-2766
▁symmetric	-2767
▁addressing	-2768
▁technology	-2769
▁Translation	-2770
▁relationship	-2771
▁Methodologies	-2772
-3	-2773
12	-2774
33	-2775
72	-2776
74	-2777
▁i	-2778
aaS	-2779
ank	-2780
aud	-2781
itu	-2782
map	-2783
row	-2784
use	-2785
▁Do	-2786
▁RG	-2787
▁Ro	-2788
▁WE	-2789
aged	-2790
imin	-2791
odes	-2792
onym	-2793
peri	-2794
vant	-2795
▁Dec	-2796
▁Lim	-2797
▁NAT	-2798
▁Pur	-2799
▁apt	-2800
▁ess	-2801
▁lat	-2802
▁pop	-2803
▁xml	-2804
icity	-2805
ished	-2806
itory	-2807
▁Area	-2808
▁Type	-2809
▁guid	-2810
▁happ	-2811
▁head	-2812
▁ping	-2813
▁role	-2814
▁stud	-2815
▁very	-2816
▁were	-2817
acters	-2818
iffing	-2819
quence	-2820
ulated	-2821
▁Autom	-2822
▁Avoid	-2823
▁HTTPS	-2824
▁Pract	-2825
▁While	-2826
▁brute	-2827
▁pairs	-2828
▁still	-2829
▁third	-2830
unterme	-2831
▁Course	-2832
▁Differ	-2833
▁actors	-2834
▁caused	-2835
▁reduce	-2836
ashboard	-2837
atically	-2838
cription	-2839
▁Android	-2840
▁Methods	-2841
▁Unified	-2842
▁actions	-2843
▁browser	-2844
▁ensures	-2845
▁extract	-2846
▁follows	-2847
▁forward	-2848
▁pattern	-2849
▁release	-2850
▁Investig	-2851
▁Platform	-2852
▁complete	-2853
▁disaster	-2854
▁discover	-2855
▁purposes	-2856
▁retention	-2857
▁Prevention	-2858
▁associated	-2859
▁legitimate	-2860
▁certificates	-2861
▁exploitation	-2862
▁stakeholders	-2863
▁documentation	-2864
▁functionality	-2865
);	-2866
-4	-2867
-5	-2868
0,	-2869
1.	-2870
FC	-2871
by	-2872
hr	-2873
ry	-2874
ti	-2875
▁z	-2876
Aut	-2877
ISC	-2878
WOR	-2879
fil	-2880
lex	-2881
▁';	-2882
▁4.	-2883
▁EX	-2884
▁Le	-2885
▁Of	-2886
▁bl	-2887
▁po	-2888
acks	-2889
ieve	-2890
ired	-2891
omal	-2892
onic	-2893
▁Mem	-2894
▁don	-2895
▁fix	-2896
andom	-2897
asing	-2898
aways	-2899
icult	-2900
▁Code	-2901
▁Sens	-2902
▁card	-2903
▁cred	-2904
▁frag	-2905
▁load	-2906
▁temp	-2907
ancial	-2908
ending	-2909
▁Cyber	-2910
▁Event	-2911
▁build	-2912
▁cache	-2913
▁chain	-2914
▁human	-2915
▁label	-2916
▁makes	-2917
▁staff	-2918
anguage	-2919
exploit	-2920
mediate	-2921
olution	-2922
ruction	-2923
▁Detect	-2924
▁Electr	-2925
▁bypass	-2926
▁depart	-2927
▁header	-2928
ifficult	-2929
ijacking	-2930
ocuments	-2931
pository	-2932
▁Desktop	-2933
▁Devices	-2934
▁Perform	-2935
▁limited	-2936
▁regular	-2937
▁working	-2938
▁Creating	-2939
ifications	-2940
▁Takeaways	-2941
▁analyzing	-2942
▁awareness	-2943
▁effective	-2944
▁essential	-2945
▁platforms	-2946
▁practices	-2947
▁something	-2948
▁typically	-2949
▁characters	-2950
▁enterprise	-2951
▁mechanisms	-2952
▁preventing	-2953
▁directories	-2954
▁engineering	-2955
▁implemented	-2956
▁permissions	-2957
▁potentially	-2958
▁Distribution	-2959
▁Installation	-2960
▁interference	-2961
▁considerations	-2962
▁investigations	-2963
BI	-2964
MA	-2965
XX	-2966
▁%	-2967
des	-2968
ins	-2969
oIP	-2970
tiv	-2971
▁Gu	-2972
acle	-2973
ains	-2974
brid	-2975
ears	-2976
erve	-2977
imal	-2978
ince	-2979
ners	-2980
teps	-2981
▁---	-2982
▁000	-2983
▁Div	-2984
▁WPA	-2985
▁Why	-2986
▁eth	-2987
▁map	-2988
▁too	-2989
▁uns	-2990
▁whe	-2991
ading	-2992
arily	-2993
aring	-2994
ember	-2995
ensic	-2996
▁Find	-2997
▁Team	-2998
▁Work	-2999
▁apps	-3000
▁here	-3001
▁loop	-3002
▁prop	-3003
▁step	-3004
▁stre	-3005
▁weak	-3006
urther	-3007
▁Appro	-3008
▁Block	-3009
▁VLANs	-3010
▁final	-3011
▁issue	-3012
▁model	-3013
▁optic	-3014
▁short	-3015
▁space	-3016
Network	-3017
adition	-3018
essions	-3019
▁Author	-3020
▁Denial	-3021
▁Subnet	-3022
▁Cabling	-3023
▁Private	-3024
▁Support	-3025
▁ability	-3026
▁analyze	-3027
▁filters	-3028
▁popular	-3029
▁trusted	-3030
▁whether	-3031
ibilities	-3032
▁Advanced	-3033
▁Computer	-3034
▁Software	-3035
▁configur	-3036
▁connects	-3037
▁embedded	-3038
▁resource	-3039
▁strategy	-3040
▁parameter	-3041
▁Operations	-3042
▁attributes	-3043
▁compromise	-3044
▁connecting	-3045
▁identified	-3046
▁interfaces	-3047
▁recommended	-3048
▁Introduction	-3049
▁Organization	-3050
▁cybersecurity	-3051
_|	-3052
tl	-3053
”)	-3054
arc	-3055
opt	-3056
reg	-3057
rop	-3058
▁04	-3059
▁Fo	-3060
▁Me	-3061
▁OF	-3062
amer	-3063
nets	-3064
oded	-3065
untr	-3066
ural	-3067
▁AND	-3068
▁DSL	-3069
▁EMI	-3070
▁Mis	-3071
▁Run	-3072
▁THE	-3073
▁ach	-3074
▁bad	-3075
▁cop	-3076
▁www	-3077
Shell	-3078
fully	-3079
ifier	-3080
incip	-3081
lient	-3082
tered	-3083
ybrid	-3084
▁WLAN	-3085
▁issu	-3086
▁miss	-3087
▁near	-3088
▁reli	-3089
▁scan	-3090
▁sets	-3091
▁side	-3092
▁view	-3093
Source	-3094
active	-3095
iation	-3096
▁Model	-3097
▁Risks	-3098
▁anten	-3099
▁doesn	-3100
▁nodes	-3101
▁radio	-3102
▁right	-3103
▁share	-3104
itative	-3105
uctured	-3106
▁Active	-3107
▁Google	-3108
▁Govern	-3109
▁around	-3110
▁easily	-3111
▁making	-3112
▁manage	-3113
▁record	-3114
▁return	-3115
▁skills	-3116
▁utiliz	-3117
▁values	-3118
printing	-3119
▁Changes	-3120
▁Content	-3121
▁Industr	-3122
▁Message	-3123
▁Strateg	-3124
▁general	-3125
▁guarant	-3126
▁screens	-3127
▁Controls	-3128
▁Insecure	-3129
▁Networks	-3130
▁Topology	-3131
▁allowing	-3132
▁attempts	-3133
▁contents	-3134
▁Collision	-3135
▁Microsoft	-3136
▁Operating	-3137
▁Searching	-3138
▁companies	-3139
▁condition	-3140
▁difficult	-3141
▁knowledge	-3142
▁providers	-3143
▁Connection	-3144
▁importance	-3145
▁individuals	-3146
untermeasures	-3147
▁Availability	-3148
▁automatically	-3149
▁Infrastructure	-3150
.4	-3151
04	-3152
LI	-3153
TH	-3154
ADA	-3155
App	-3156
Dis	-3157
IUS	-3158
aft	-3159
alu	-3160
att	-3161
eer	-3162
erc	-3163
ery	-3164
mep	-3165
▁+=	-3166
▁AT	-3167
▁Ag	-3168
▁BY	-3169
▁CP	-3170
▁Ed	-3171
▁Im	-3172
▁SP	-3173
▁Wr	-3174
▁bi	-3175
▁mo	-3176
Auth	-3177
CADA	-3178
ENCE	-3179
aken	-3180
hens	-3181
know	-3182
list	-3183
lose	-3184
lows	-3185
oles	-3186
rors	-3187
unch	-3188
▁bin	-3189
▁mon	-3190
▁sud	-3191
▁xhr	-3192
arket	-3193
ayers	-3194
erial	-3195
inter	-3196
pects	-3197
unnel	-3198
▁CSRF	-3199
▁Many	-3200
▁Must	-3201
▁Ping	-3202
▁Site	-3203
▁cost	-3204
▁expl	-3205
▁info	-3206
▁once	-3207
▁onto	-3208
▁runs	-3209
▁show	-3210
letmep	-3211
middle	-3212
orrect	-3213
ulates	-3214
▁OAuth	-3215
▁Solut	-3216
▁Start	-3217
▁Table	-3218
▁asset	-3219
▁basic	-3220
▁broad	-3221
▁built	-3222
▁cover	-3223
▁drive	-3224
▁evalu	-3225
▁expos	-3226
▁voice	-3227
estions	-3228
isoning	-3229
pection	-3230
tenance	-3231
▁Create	-3232
▁countr	-3233
▁course	-3234
▁engine	-3235
▁experi	-3236
▁groups	-3237
▁integr	-3238
▁manual	-3239
▁output	-3240
▁safety	-3241
▁status	-3242
▁supply	-3243
requency	-3244
▁Traffic	-3245
▁backups	-3246
▁ethical	-3247
▁facilit	-3248
▁further	-3249
▁looking	-3250
▁measure	-3251
▁respond	-3252
letmepass	-3253
▁Payloads	-3254
▁elements	-3255
▁overwhel	-3256
▁programs	-3257
▁provider	-3258
▁publicly	-3259
▁192.168.1	-3260
▁Solutions	-3261
▁algorithm	-3262
▁plaintext	-3263
▁algorithms	-3264
▁ciphertext	-3265
▁electrical	-3266
▁parameters	-3267
▁identifying	-3268
▁connectivity	-3269
▁Identification	-3270
▁administrative	-3271
:0	-3272
aj	-3273
az	-3274
xx	-3275
▁_	-3276
COM	-3277
IPS	-3278
box	-3279
esh	-3280
exe	-3281
ips	-3282
mat	-3283
ned	-3284
rel	-3285
tal	-3286
tax	-3287
unk	-3288
www	-3289
▁(“	-3290
▁LL	-3291
▁Ne	-3292
▁VM	-3293
▁●1	-3294
-601	-3295
Gbps	-3296
ants	-3297
ares	-3298
comm	-3299
elay	-3300
ingu	-3301
inks	-3302
ises	-3303
izes	-3304
lean	-3305
part	-3306
serv	-3307
user	-3308
▁128	-3309
▁255	-3310
▁CON	-3311
▁Lif	-3312
▁RAD	-3313
▁Sur	-3314
▁WEP	-3315
▁dig	-3316
▁tim	-3317
agnet	-3318
atter	-3319
erous	-3320
itors	-3321
ready	-3322
yntax	-3323
▁Also	-3324
▁Dist	-3325
▁EXPL	-3326
▁Rest	-3327
▁agre	-3328
▁bits	-3329
▁disk	-3330
▁full	-3331
▁redu	-3332
▁situ	-3333
porate	-3334
rehens	-3335
▁Limit	-3336
▁Local	-3337
▁Proxy	-3338
▁Snort	-3339
▁actor	-3340
▁along	-3341
▁manip	-3342
▁offer	-3343
▁party	-3344
▁roles	-3345
▁route	-3346
▁token	-3347
icating	-3348
liances	-3349
▁Cipher	-3350
▁Encaps	-3351
▁Entity	-3352
▁Points	-3353
▁RADIUS	-3354
▁Trojan	-3355
▁affect	-3356
▁aggreg	-3357
▁altern	-3358
▁amount	-3359
▁blocks	-3360
▁destro	-3361
▁having	-3362
▁office	-3363
▁option	-3364
▁vector	-3365
oneypots	-3366
▁Backups	-3367
▁Channel	-3368
▁Forward	-3369
▁Hashing	-3370
▁Reverse	-3371
▁blocked	-3372
▁categor	-3373
▁defense	-3374
▁deliver	-3375
▁latency	-3376
▁metrics	-3377
▁options	-3378
▁primary	-3379
▁recover	-3380
▁someone	-3381
▁success	-3382
avelength	-3383
▁Algorith	-3384
▁Examples	-3385
▁Password	-3386
▁generate	-3387
▁manually	-3388
▁previous	-3389
▁computing	-3390
▁frequency	-3391
▁mechanism	-3392
▁signature	-3393
▁sometimes	-3394
▁connectors	-3395
▁considered	-3396
▁controller	-3397
▁Cryptography	-3398
▁Understanding	-3399
▁understanding	-3400
Troubleshooting	-3401
▁confidentiality	-3402
##	-3403
($	-3404
.5	-3405
.6	-3406
CD	-3407
LP	-3408
PP	-3409
RT	-3410
df	-3411
km	-3412
”,	-3413
...	-3414
NET	-3415
XXE	-3416
agr	-3417
ems	-3418
oks	-3419
pth	-3420
txt	-3421
▁#1	-3422
▁./	-3423
▁11	-3424
▁Er	-3425
▁RC	-3426
▁RS	-3427
▁UC	-3428
▁ec	-3429
▁mv	-3430
▁wa	-3431
User	-3432
enec	-3433
ests	-3434
like	-3435
ogue	-3436
olve	-3437
ysts	-3438
▁APs	-3439
▁Beh	-3440
▁LLM	-3441
▁Let	-3442
▁Two	-3443
▁del	-3444
▁dup	-3445
▁ref	-3446
ached	-3447
adata	-3448
ansom	-3449
ervis	-3450
lease	-3451
ucial	-3452
▁Conc	-3453
▁Disk	-3454
▁Qual	-3455
▁Root	-3456
▁SQLi	-3457
▁Stat	-3458
▁Weak	-3459
▁arch	-3460
▁life	-3461
▁tele	-3462
▁trac	-3463
ansion	-3464
arding	-3465
edical	-3466
ground	-3467
losure	-3468
mental	-3469
nesses	-3470
tlenec	-3471
▁Cross	-3472
▁Enter	-3473
▁Lists	-3474
▁Rogue	-3475
▁admin	-3476
▁carry	-3477
▁force	-3478
▁image	-3479
▁least	-3480
▁lines	-3481
▁pages	-3482
▁taken	-3483
▁total	-3484
▁world	-3485
agnetic	-3486
ulatory	-3487
▁Static	-3488
▁center	-3489
▁compat	-3490
▁detail	-3491
▁handle	-3492
▁higher	-3493
▁random	-3494
▁select	-3495
▁stages	-3496
▁Analyze	-3497
▁Collect	-3498
▁Gateway	-3499
▁Routers	-3500
▁Servers	-3501
▁crucial	-3502
▁explain	-3503
▁logging	-3504
▁parties	-3505
▁receive	-3506
▁sensors	-3507
▁twisted	-3508
aditional	-3509
rehensive	-3510
▁Endpoint	-3511
▁Includes	-3512
▁Switches	-3513
▁delivery	-3514
▁expected	-3515
▁insecure	-3516
▁measured	-3517
▁planning	-3518
▁supports	-3519
▁topology	-3520
▁Different	-3521
▁Malicious	-3522
▁Offensive	-3523
▁collision	-3524
▁community	-3525
▁component	-3526
▁connector	-3527
▁documents	-3528
▁efficient	-3529
▁generated	-3530
▁incidents	-3531
▁intruders	-3532
▁intrusion	-3533
▁practical	-3534
▁providing	-3535
Application	-3536
▁Compliance	-3537
▁collecting	-3538
▁disruption	-3539
▁limitation	-3540
▁redundancy	-3541
▁Acquisition	-3542
▁Directories	-3543
▁acquisition	-3544
▁development	-3545
▁limitations	-3546
▁recognition	-3547
▁professional	-3548
▁verification	-3549
▁Communications	-3550
▁administrators	-3551
▁organizational	-3552
▁Vulnerabilities	-3553
*)	-3554
.8	-3555
1]	-3556
24	-3557
53	-3558
:4	-3559
DS	-3560
cp	-3561
ha	-3562
no	-3563
uf	-3564
ITA	-3565
alf	-3566
ane	-3567
ead	-3568
oms	-3569
ons	-3570
ttp	-3571
ven	-3572
▁#2	-3573
▁19	-3574
▁3:	-3575
▁5:	-3576
▁Dr	-3577
▁So	-3578
▁ip	-3579
▁ls	-3580
LLIG	-3581
Serv	-3582
ajor	-3583
door	-3584
dump	-3585
enum	-3586
erts	-3587
ffor	-3588
hers	-3589
itut	-3590
look	-3591
pair	-3592
plit	-3593
spec	-3594
▁137	-3595
▁ACL	-3596
▁Art	-3597
▁CLI	-3598
▁Eas	-3599
▁Get	-3600
▁Rev	-3601
▁STE	-3602
▁SYO	-3603
▁add	-3604
▁bit	-3605
▁dro	-3606
actor	-3607
afety	-3608
ament	-3609
arger	-3610
flows	-3611
idden	-3612
pping	-3613
uster	-3614
velop	-3615
▁Base	-3616
▁Deli	-3617
▁GBIC	-3618
▁Init	-3619
▁Lack	-3620
▁Line	-3621
▁Look	-3622
▁Mach	-3623
▁More	-3624
▁Tele	-3625
▁brid	-3626
▁clos	-3627
▁give	-3628
▁lack	-3629
▁tags	-3630
▁team	-3631
Series	-3632
ameras	-3633
cation	-3634
illion	-3635
llback	-3636
▁Every	-3637
▁Hosts	-3638
▁Relay	-3639
▁apply	-3640
▁basis	-3641
▁grant	-3642
▁parts	-3643
▁reach	-3644
▁schem	-3645
▁since	-3646
▁store	-3647
▁study	-3648
▁wires	-3649
ections	-3650
ergency	-3651
ificial	-3652
▁Client	-3653
▁Execut	-3654
▁Global	-3655
▁Online	-3656
▁Oracle	-3657
▁Origin	-3658
▁adding	-3659
▁advant	-3660
▁become	-3661
▁causes	-3662
▁distin	-3663
▁entity	-3664
▁folder	-3665
▁rather	-3666
▁speeds	-3667
▁things	-3668
LLIGENCE	-3669
undament	-3670
▁Authent	-3671
▁Browser	-3672
▁However	-3673
▁Threats	-3674
▁contact	-3675
▁factors	-3676
▁minimum	-3677
▁objects	-3678
▁portion	-3679
▁project	-3680
▁quickly	-3681
▁subnets	-3682
▁updated	-3683
▁External	-3684
▁Personal	-3685
▁Spoofing	-3686
▁deployed	-3687
▁involved	-3688
▁language	-3689
▁managing	-3690
▁performs	-3691
▁products	-3692
▁scenario	-3693
▁segments	-3694
▁Retention	-3695
▁Satellite	-3696
▁attackers	-3697
▁authority	-3698
▁explained	-3699
▁financial	-3700
▁forensics	-3701
▁operation	-3702
▁receiving	-3703
▁reporting	-3704
▁structure	-3705
▁determines	-3706
▁electronic	-3707
▁government	-3708
▁screenshot	-3709
▁strategies	-3710
▁structured	-3711
▁suspicious	-3712
▁Connections	-3713
▁electricity	-3714
▁maintaining	-3715
▁responsible	-3716
▁INTELLIGENCE	-3717
▁implementing	-3718
▁transmission	-3719
▁Cybersecurity	-3720
▁configurations	-3721
▁identification	-3722
14	-3723
AM	-3724
EO	-3725
HP	-3726
VC	-3727
.*)	-3728
011	-3729
ACK	-3730
alt	-3731
avi	-3732
ecy	-3733
fus	-3734
ike	-3735
ipe	-3736
mal	-3737
ops	-3738
pre	-3739
ume	-3740
var	-3741
vey	-3742
▁#3	-3743
▁64	-3744
▁Am	-3745
▁DB	-3746
▁DP	-3747
▁MT	-3748
▁aw	-3749
Hell	-3750
OITA	-3751
alse	-3752
avig	-3753
ends	-3754
gets	-3755
hood	-3756
ored	-3757
ping	-3758
ruct	-3759
▁Ens	-3760
▁Fin	-3761
▁IPS	-3762
▁Sec	-3763
▁TOO	-3764
▁XEE	-3765
▁YOU	-3766
▁mat	-3767
▁unt	-3768
aries	-3769
irror	-3770
istic	-3771
party	-3772
plays	-3773
ulate	-3774
▁Best	-3775
▁Feat	-3776
▁Fire	-3777
▁Loss	-3778
▁NIST	-3779
▁VoIP	-3780
▁deny	-3781
▁easy	-3782
▁flow	-3783
▁home	-3784
▁mean	-3785
andbox	-3786
cripts	-3787
ecycle	-3788
gether	-3789
icates	-3790
iteria	-3791
lihood	-3792
onents	-3793
▁accur	-3794
▁agent	-3795
▁cases	-3796
▁cycle	-3797
▁delay	-3798
▁entry	-3799
▁great	-3800
▁intro	-3801
▁links	-3802
▁takes	-3803
ellular	-3804
ocation	-3805
▁Frames	-3806
▁People	-3807
▁Single	-3808
▁Termin	-3809
▁anomal	-3810
▁applic	-3811
▁discip	-3812
▁easier	-3813
▁errors	-3814
▁faster	-3815
▁highly	-3816
▁lookup	-3817
▁stands	-3818
▁submit	-3819
▁though	-3820
▁vendor	-3821
▁visual	-3822
OSINTcon	-3823
alancing	-3824
edicated	-3825
unneling	-3826
▁Padding	-3827
▁Privile	-3828
▁Updates	-3829
▁already	-3830
▁applies	-3831
▁destroy	-3832
▁enhance	-3833
▁headers	-3834
▁instead	-3835
▁managed	-3836
▁registr	-3837
▁reverse	-3838
ansomware	-3839
▁Controll	-3840
▁EXPLOITA	-3841
▁Features	-3842
▁Firmware	-3843
▁analysts	-3844
▁approval	-3845
▁circuits	-3846
▁combined	-3847
▁compared	-3848
▁creating	-3849
▁decision	-3850
▁distinct	-3851
▁existing	-3852
▁fragment	-3853
▁instance	-3854
▁internet	-3855
▁mismatch	-3856
▁modified	-3857
▁original	-3858
▁practice	-3859
▁redirect	-3860
▁scanning	-3861
▁sequence	-3862
▁tracking	-3863
▁Frequency	-3864
▁Switching	-3865
▁Symmetric	-3866
▁advantage	-3867
▁configure	-3868
▁describes	-3869
▁developed	-3870
▁indicates	-3871
▁monitored	-3872
onymization	-3873
ootprinting	-3874
▁Components	-3875
▁Continuity	-3876
▁Technology	-3877
▁challenges	-3878
▁classified	-3879
▁guidelines	-3880
▁likelihood	-3881
▁privileges	-3882
▁repository	-3883
▁requesting	-3884
▁smartphone	-3885
▁Limitations	-3886
▁documenting	-3887
▁Applications	-3888
▁Confidential	-3889
▁environments	-3890
▁administrator	-3891
▁authorization	-3892
()	-3893
-8	-3894
-]	-3895
/,	-3896
30	-3897
5:	-3898
85	-3899
:2	-3900
CH	-3901
Cs	-3902
FP	-3903
St	-3904
Tr	-3905
UT	-3906
ik	-3907
*1.	-3908
.74	-3909
EEE	-3910
IPv	-3911
LAB	-3912
OSI	-3913
WEL	-3914
adb	-3915
alc	-3916
aws	-3917
egu	-3918
fir	-3919
tes	-3920
url	-3921
▁21	-3922
▁4:	-3923
▁Bo	-3924
▁GO	-3925
▁Ob	-3926
▁el	-3927
▁fe	-3928
($0,	-3929
CRIP	-3930
ably	-3931
apid	-3932
cape	-3933
erns	-3934
erty	-3935
flow	-3936
pare	-3937
umid	-3938
▁Aud	-3939
▁Bre	-3940
▁DSS	-3941
▁Dem	-3942
▁Don	-3943
▁Eth	-3944
▁Ill	-3945
▁NFC	-3946
▁SAN	-3947
▁SYN	-3948
▁aff	-3949
▁beg	-3950
▁eng	-3951
▁php	-3952
▁pol	-3953
▁tcp	-3954
XXEME	-3955
acing	-3956
aware	-3957
iving	-3958
licit	-3959
uable	-3960
▁(.*)	-3961
▁Blue	-3962
▁DPDP	-3963
▁Easy	-3964
▁Full	-3965
▁Note	-3966
▁Once	-3967
▁Only	-3968
▁care	-3969
▁circ	-3970
▁cook	-3971
▁expr	-3972
▁last	-3973
▁node	-3974
▁sche	-3975
GbaseS	-3976
cement	-3977
charge	-3978
ifying	-3979
iphers	-3980
vision	-3981
▁Human	-3982
▁Light	-3983
▁SCADA	-3984
▁Trust	-3985
▁Video	-3986
▁added	-3987
▁close	-3988
▁contr	-3989
▁field	-3990
▁mater	-3991
▁until	-3992
ateways	-3993
lapping	-3994
trusted	-3995
umidity	-3996
ustrate	-3997
vements	-3998
▁Accept	-3999
▁Follow	-4000
▁Header	-4001
▁Hybrid	-4002
▁Proble	-4003
▁Safety	-4004
▁Signal	-4005
▁Target	-4006
▁arrang	-4007
▁attach	-4008
▁broken	-4009
▁constr	-4010
▁inform	-4011
▁issued	-4012
▁listed	-4013
▁nature	-4014
▁placed	-4015
▁safegu	-4016
▁simple	-4017
atabases	-4018
ructions	-4019
▁255.255	-4020
▁Consent	-4021
▁Dynamic	-4022
▁Environ	-4023
▁Extract	-4024
▁Machine	-4025
▁Packets	-4026
▁convert	-4027
▁feature	-4028
▁medical	-4029
▁vendors	-4030
▁viruses	-4031
▁whereas	-4032
Discovery	-4033
ferencing	-4034
ufficient	-4035
▁Attacker	-4036
▁Behavior	-4037
▁Embedded	-4038
▁advanced	-4039
▁consists	-4040
▁criteria	-4041
▁included	-4042
▁learning	-4043
▁normally	-4044
▁patterns	-4045
▁received	-4046
▁relevant	-4047
▁reliable	-4048
▁securely	-4049
▁sessions	-4050
▁valuable	-4051
ynchronous	-4052
▁Expansion	-4053
▁Filtering	-4054
▁Forensics	-4055
▁Functions	-4056
▁Practices	-4057
▁dedicated	-4058
▁expensive	-4059
▁gathering	-4060
▁Enterprise	-4061
▁Illustrate	-4062
▁PowerShell	-4063
▁categories	-4064
▁department	-4065
▁geographic	-4066
▁mitigation	-4067
▁Maintenance	-4068
▁Regulations	-4069
▁Footprinting	-4070
▁installation	-4071
▁characteristics	-4072
-7	-4073
.,	-4074
0:	-4075
15	-4076
16	-4077
45	-4078
84	-4079
:*	-4080
HA	-4081
KI	-4082
Re	-4083
UE	-4084
UP	-4085
cy	-4086
gu	-4087
.16	-4088
/\\	-4089
://	-4090
:00	-4091
Con	-4092
Lab	-4093
PLS	-4094
The	-4095
day	-4096
ero	-4097
gue	-4098
leg	-4099
lls	-4100
omp	-4101
sec	-4102
ums	-4103
▁00	-4104
▁15	-4105
▁24	-4106
▁2:	-4107
▁5.	-4108
▁Mo	-4109
▁OR	-4110
▁ho	-4111
.1.1	-4112
.187	-4113
0101	-4114
Base	-4115
MINT	-4116
WINT	-4117
ailb	-4118
anit	-4119
code	-4120
host	-4121
ived	-4122
oney	-4123
orth	-4124
pped	-4125
scal	-4126
sequ	-4127
yond	-4128
▁110	-4129
▁172	-4130
▁Bad	-4131
▁Ext	-4132
▁FOR	-4133
▁GPS	-4134
▁ISO	-4135
▁Mac	-4136
▁PVC	-4137
▁Pat	-4138
▁TLS	-4139
▁Tim	-4140
▁Vol	-4141
▁Who	-4142
▁der	-4143
▁law	-4144
▁sed	-4145
▁spl	-4146
▁tar	-4147
▁why	-4148
asion	-4149
edian	-4150
enior	-4151
ether	-4152
force	-4153
oding	-4154
onstr	-4155
ordin	-4156
oring	-4157
▁Anti	-4158
▁Blog	-4159
▁Boot	-4160
▁Dest	-4161
▁Expl	-4162
▁Frag	-4163
▁GOAL	-4164
▁IEEE	-4165
▁Load	-4166
▁MPLS	-4167
▁Mbps	-4168
▁NIDS	-4169
▁Part	-4170
▁Plan	-4171
▁Then	-4172
▁aims	-4173
▁bank	-4174
▁calc	-4175
▁hour	-4176
▁leet	-4177
▁rack	-4178
▁sudo	-4179
▁viol	-4180
/\\\//	-4181
WINTEL	-4182
ecimal	-4183
ielded	-4184
▁About	-4185
▁Asset	-4186
▁Based	-4187
▁Circu	-4188
▁Level	-4189
▁Ports	-4190
▁Recor	-4191
▁SOWEL	-4192
▁Voice	-4193
▁World	-4194
▁above	-4195
▁achie	-4196
▁cards	-4197
▁compr	-4198
▁depth	-4199
▁effor	-4200
▁minor	-4201
▁mount	-4202
▁produ	-4203
▁rogue	-4204
▁steal	-4205
▁teams	-4206
▁theft	-4207
.74.187	-4208
dential	-4209
iminals	-4210
lectrom	-4211
tivirus	-4212
witched	-4213
▁Assess	-4214
▁Comput	-4215
▁Remove	-4216
▁United	-4217
▁accomp	-4218
▁alerts	-4219
▁beyond	-4220
▁checks	-4221
▁copies	-4222
▁delete	-4223
▁encaps	-4224
▁enumer	-4225
▁fields	-4226
▁global	-4227
▁hacker	-4228
▁health	-4229
▁larger	-4230
▁models	-4231
▁offers	-4232
▁proced	-4233
▁remove	-4234
▁stores	-4235
▁tables	-4236
▁theory	-4237
▁transl	-4238
arketing	-4239
boarding	-4240
llisions	-4241
▁Posture	-4242
▁Protect	-4243
▁Scanner	-4244
▁Trojans	-4245
▁changed	-4246
▁clearly	-4247
▁concept	-4248
▁creates	-4249
▁discuss	-4250
▁encoded	-4251
▁hackers	-4252
▁planned	-4253
▁quality	-4254
▁sniffer	-4255
▁writing	-4256
/\\\//\//	-4257
aturation	-4258
▁Distance	-4259
▁Division	-4260
▁Downtime	-4261
▁Internal	-4262
▁Remember	-4263
▁anything	-4264
▁baseline	-4265
▁describe	-4266
▁detected	-4267
▁facility	-4268
▁industry	-4269
▁minimize	-4270
▁presence	-4271
▁replaced	-4272
▁Following	-4273
▁Platforms	-4274
▁collected	-4275
▁corporate	-4276
▁countries	-4277
▁guarantee	-4278
▁incorrect	-4279
▁intercept	-4280
▁partition	-4281
▁primarily	-4282
▁regarding	-4283
▁requested	-4284
▁Connectors	-4285
▁Redundancy	-4286
▁applicable	-4287
▁controlled	-4288
▁discipline	-4289
▁everything	-4290
▁experience	-4291
▁identifies	-4292
▁performing	-4293
▁Description	-4294
▁combination	-4295
▁operational	-4296
▁Exploitation	-4297
▁Segmentation	-4298
▁capabilities	-4299
▁instructions	-4300
▁successfully	-4301
▁comprehensive	-4302
▁environmental	-4303
▁classification	-4304
▁responsibility	-4305
▁Confidentiality	-4306
3%	-4307
3,	-4308
3.	-4309
80	-4310
82	-4311
99	-4312
DE	-4313
Ex	-4314
GP	-4315
HR	-4316
II	-4317
TD	-4318
UL	-4319
dd	-4320
oW	-4321
sn	-4322
ty	-4323
yt	-4324
”.	-4325
DSL	-4326
ENG	-4327
IDR	-4328
MAC	-4329
OME	-4330
OST	-4331
RFI	-4332
SLA	-4333
any	-4334
awk	-4335
def	-4336
emb	-4337
mar	-4338
ype	-4339
▁(1	-4340
▁3,	-4341
▁80	-4342
▁==	-4343
▁Ap	-4344
▁Cl	-4345
▁TI	-4346
▁cp	-4347
ARNS	-4348
anel	-4349
eric	-4350
file	-4351
hots	-4352
icit	-4353
lder	-4354
most	-4355
oWor	-4356
ouse	-4357
uris	-4358
wner	-4359
▁AAA	-4360
▁API	-4361
▁Bur	-4362
▁COM	-4363
▁FTP	-4364
▁Med	-4365
▁Num	-4366
▁PHP	-4367
▁PPP	-4368
▁Rep	-4369
▁SOC	-4370
▁few	-4371
▁pos	-4372
▁sty	-4373
WORTH	-4374
abled	-4375
apter	-4376
axial	-4377
bound	-4378
eless	-4379
elves	-4380
gress	-4381
igned	-4382
indow	-4383
ional	-4384
ister	-4385
itute	-4386
known	-4387
power	-4388
repud	-4389
sites	-4390
slook	-4391
ytics	-4392
▁1000	-4393
▁2001	-4394
▁2023	-4395
▁BYOD	-4396
▁Both	-4397
▁Brid	-4398
▁CSMA	-4399
▁Cent	-4400
▁DDoS	-4401
▁Edge	-4402
▁HIDS	-4403
▁HTML	-4404
▁Hack	-4405
▁Long	-4406
▁Mail	-4407
▁News	-4408
▁Null	-4409
▁Page	-4410
▁Tips	-4411
▁date	-4412
▁gawk	-4413
▁grep	-4414
▁subs	-4415
access	-4416
aneous	-4417
arrier	-4418
atures	-4419
aviors	-4420
ayment	-4421
domain	-4422
icator	-4423
oWorld	-4424
phones	-4425
rength	-4426
static	-4427
ustody	-4428
▁FARNS	-4429
▁Impro	-4430
▁Print	-4431
▁STEPS	-4432
▁Smart	-4433
▁Split	-4434
▁Three	-4435
▁Users	-4436
▁adopt	-4437
▁audio	-4438
▁audit	-4439
▁bytes	-4440
▁const	-4441
▁defin	-4442
▁delet	-4443
▁goals	-4444
▁major	-4445
▁navig	-4446
▁setup	-4447
▁snort	-4448
▁solve	-4449
▁suite	-4450
▁tells	-4451
▁tests	-4452
▁times	-4453
▁track	-4454
▁usual	-4455
ierarch	-4456
ifiable	-4457
slookup	-4458
tleneck	-4459
ulating	-4460
ventory	-4461
▁Copper	-4462
▁Format	-4463
▁Memory	-4464
▁Office	-4465
▁Plenum	-4466
▁Simple	-4467
▁Vector	-4468
▁Within	-4469
▁advers	-4470
▁define	-4471
▁demarc	-4472
▁drives	-4473
▁emails	-4474
▁happen	-4475
▁layers	-4476
▁logged	-4477
▁senior	-4478
adbuster	-4479
edianets	-4480
ediation	-4481
ifically	-4482
irroring	-4483
national	-4484
urisdict	-4485
▁Challen	-4486
▁Circuit	-4487
▁FWINTEL	-4488
▁Hunting	-4489
▁Insider	-4490
▁Pattern	-4491
▁Present	-4492
▁Purpose	-4493
▁Records	-4494
▁Sources	-4495
▁Vectors	-4496
▁applied	-4497
▁aspects	-4498
▁benefit	-4499
▁capture	-4500
▁causing	-4501
▁members	-4502
▁outages	-4503
▁overall	-4504
▁padding	-4505
▁posture	-4506
▁princip	-4507
▁secured	-4508
▁setting	-4509
▁tracert	-4510
▁useless	-4511
▁vectors	-4512
.74.187.1	-4513
▁Analyzer	-4514
▁Baseline	-4515
▁Critical	-4516
▁Function	-4517
▁Provides	-4518
▁Question	-4519
▁affected	-4520
▁approved	-4521
▁benefits	-4522
▁breaches	-4523
▁concepts	-4524
▁detailed	-4525
▁exploits	-4526
▁imperson	-4527
▁mitigate	-4528
▁protects	-4529
▁released	-4530
▁remotely	-4531
▁retrieve	-4532
▁sniffing	-4533
▁terminal	-4534
▁together	-4535
HelloWorld	-4536
▁Awareness	-4537
▁Dashboard	-4538
▁Hijacking	-4539
▁Operation	-4540
▁Poisoning	-4541
▁dashboard	-4542
▁execution	-4543
▁privilege	-4544
▁procedure	-4545
▁satellite	-4546
▁separated	-4547
▁Algorithms	-4548
▁Asymmetric	-4549
▁Collection	-4550
▁Electrical	-4551
▁FARNSWORTH	-4552
▁Industrial	-4553
▁Regulation	-4554
▁decryption	-4555
▁documented	-4556
▁encrypting	-4557
▁facilitate	-4558
▁frameworks	-4559
▁frequently	-4560
▁increasing	-4561
▁indicators	-4562
▁industrial	-4563
▁prioritize	-4564
▁statistics	-4565
▁sufficient	-4566
▁throughput	-4567
▁wavelength	-4568
▁arrangement	-4569
▁Certificates	-4570
▁EXPLOITATION	-4571
▁cryptography	-4572
▁distribution	-4573
▁particularly	-4574
▁segmentation	-4575
lectromagnetic	-4576
▁Cryptographic	-4577
▁Encapsulation	-4578
▁distributions	-4579
▁professionals	-4580
▁Countermeasures	-4581
29	-4582
Ad	-4583
IH	-4584
OP	-4585
RI	-4586
TA	-4587
Te	-4588
Th	-4589
Wo	-4590
|2	-4591
308	-4592
ENT	-4593
EST	-4594
For	-4595
Har	-4596
ILL	-4597
ITY	-4598
VER	-4599
den	-4600
dlo	-4601
iec	-4602
ief	-4603
iet	-4604
ilo	-4605
ina	-4606
iom	-4607
ism	-4608
ler	-4609
nas	-4610
oph	-4611
rWo	-4612
tep	-4613
uro	-4614
urs	-4615
xim	-4616
▁32	-4617
▁40	-4618
▁54	-4619
▁At	-4620
▁CC	-4621
▁DM	-4622
▁EU	-4623
▁SM	-4624
▁Ut	-4625
▁WH	-4626
▁jo	-4627
BIOS	-4628
SSID	-4629
alid	-4630
ectr	-4631
hark	-4632
ibre	-4633
ides	-4634
ield	-4635
inst	-4636
inue	-4637
kits	-4638
lash	-4639
ocon	-4640
olen	-4641
otal	-4642
post	-4643
pret	-4644
rary	-4645
uled	-4646
umes	-4647
▁111	-4648
▁1|2	-4649
▁Air	-4650
▁Cor	-4651
▁Eng	-4652
▁GUI	-4653
▁MDM	-4654
▁Min	-4655
▁Now	-4656
▁Own	-4657
▁Som	-4658
▁Vis	-4659
▁box	-4660
▁hex	-4661
▁mic	-4662
▁ren	-4663
▁rep	-4664
87308	-4665
Steps	-4666
atagr	-4667
baseT	-4668
dloIH	-4669
going	-4670
imode	-4671
lists	-4672
lling	-4673
oming	-4674
rWoel	-4675
urope	-4676
uties	-4677
▁CIDR	-4678
▁Dark	-4679
▁Fail	-4680
▁Nmap	-4681
▁Self	-4682
▁TIER	-4683
▁Test	-4684
▁Vend	-4685
▁WiFi	-4686
▁come	-4687
▁dang	-4688
▁else	-4689
▁exha	-4690
▁four	-4691
▁gets	-4692
▁meet	-4693
▁move	-4694
▁piec	-4695
▁rate	-4696
▁thus	-4697
▁troj	-4698
▁want	-4699
▁wide	-4700
▁zone	-4701
.0.0.1	-4702
Harves	-4703
ailbre	-4704
attery	-4705
caping	-4706
iminal	-4707
ophist	-4708
ximity	-4709
▁Apply	-4710
▁Below	-4711
▁Black	-4712
▁Broad	-4713
▁Cache	-4714
▁Chain	-4715
▁Death	-4716
▁Image	-4717
▁Intel	-4718
▁Manip	-4719
▁Order	-4720
▁Phone	-4721
▁Recon	-4722
▁Roles	-4723
▁Steps	-4724
▁Wires	-4725
▁Works	-4726
▁calls	-4727
▁costs	-4728
▁fails	-4729
▁fault	-4730
▁flash	-4731
▁fraud	-4732
▁gives	-4733
▁guide	-4734
▁hours	-4735
▁locks	-4736
▁modes	-4737
▁month	-4738
▁multi	-4739
▁owner	-4740
▁resol	-4741
▁sanit	-4742
▁secur	-4743
▁split	-4744
▁spoof	-4745
▁thems	-4746
▁uname	-4747
▁wrong	-4748
itivity	-4749
pective	-4750
▁Europe	-4751
▁Gather	-4752
▁Import	-4753
▁Master	-4754
▁Refers	-4755
▁Select	-4756
▁Verify	-4757
▁anyone	-4758
▁behalf	-4759
▁hashes	-4760
▁medium	-4761
▁notice	-4762
▁perman	-4763
▁propag	-4764
▁retain	-4765
▁sample	-4766
▁screen	-4767
▁simply	-4768
▁unable	-4769
andatory	-4770
andscape	-4771
relation	-4772
specific	-4773
▁Account	-4774
▁Develop	-4775
▁Disable	-4776
▁Managed	-4777
▁NetBIOS	-4778
▁Passive	-4779
▁Quality	-4780
▁Usually	-4781
▁antenna	-4782
▁carried	-4783
▁consent	-4784
▁coordin	-4785
▁depends	-4786
▁impacts	-4787
▁initial	-4788
▁meaning	-4789
▁operate	-4790
▁produce	-4791
▁publish	-4792
▁variety	-4793
Harvester	-4794
ultipoint	-4795
▁Forensic	-4796
▁Maintain	-4797
▁Planning	-4798
▁Sniffing	-4799
▁Websites	-4800
▁accessed	-4801
▁changing	-4802
▁displays	-4803
▁exchange	-4804
▁executed	-4805
▁followed	-4806
▁increase	-4807
▁indicate	-4808
▁insights	-4809
▁payloads	-4810
▁receives	-4811
▁sections	-4812
▁spoofing	-4813
▁synchron	-4814
▁targeted	-4815
▁variable	-4816
▁verifies	-4817
irectional	-4818
ographical	-4819
rWoeldloIH	-4820
▁Connector	-4821
▁Equipment	-4822
▁Hardening	-4823
▁Lifecycle	-4824
▁Resources	-4825
▁Therefore	-4826
▁Tunneling	-4827
▁Wireshark	-4828
▁accessing	-4829
▁anomalies	-4830
▁automated	-4831
▁behaviors	-4832
▁customers	-4833
▁distances	-4834
▁hijacking	-4835
▁introduce	-4836
▁locations	-4837
▁mitigated	-4838
▁questions	-4839
▁recognize	-4840
▁situation	-4841
repudiation	-4842
▁Artificial	-4843
▁Governance	-4844
▁Persistent	-4845
▁Strategies	-4846
▁acceptable	-4847
▁assignment	-4848
▁automation	-4849
▁consistent	-4850
▁disclosure	-4851
▁discovered	-4852
▁eDiscovery	-4853
▁identities	-4854
▁objectives	-4855
▁permission	-4856
▁physically	-4857
▁themselves	-4858
▁Examination	-4859
▁Penetration	-4860
▁alternative	-4861
▁centralized	-4862
▁definitions	-4863
▁examination	-4864
▁interaction	-4865
▁specialized	-4866
▁traditional	-4867
▁137.74.187.1	-4868
▁Implementing	-4869
▁Notification	-4870
▁Presentation	-4871
▁restrictions	-4872
▁specifically	-4873
▁transmitting	-4874
identification	-4875
▁Environmental	-4876
▁methodologies	-4877
▁significantly	-4878
▁Administration	-4879
▁Investigations	-4880
▁Virtualization	-4881
▁implementations	-4882
',	-4883
('	-4884
/.	-4885
/0	-4886
03	-4887
1,	-4888
1:	-4889
32	-4890
:\	-4891
AF	-4892
CA	-4893
FX	-4894
IA	-4895
LE	-4896
PF	-4897
SA	-4898
SE	-4899
SO	-4900
ST	-4901
Se	-4902
bs	-4903
mb	-4904
▁)	-4905
▁u	-4906
364	-4907
ACS	-4908
ALL	-4909
AME	-4910
ATA	-4911
ATE	-4912
BER	-4913
DPR	-4914
FID	-4915
FTP	-4916
KIP	-4917
NAT	-4918
Off	-4919
SAN	-4920
SON	-4921
XXX	-4922
aat	-4923
ars	-4924
arv	-4925
aur	-4926
bro	-4927
gle	-4928
igg	-4929
ios	-4930
oke	-4931
pat	-4932
xxe	-4933
▁05	-4934
▁2-	-4935
▁23	-4936
▁6.	-4937
▁7.	-4938
▁AN	-4939
▁AS	-4940
▁CH	-4941
▁IR	-4942
▁Ke	-4943
▁LE	-4944
▁TO	-4945
▁df	-4946
▁ms	-4947
▁xx	-4948
.254	-4949
3645	-4950
DDoS	-4951
MAND	-4952
Pass	-4953
Site	-4954
Team	-4955
aper	-4956
book	-4957
dule	-4958
epar	-4959
ergy	-4960
hout	-4961
iers	-4962
iews	-4963
iles	-4964
kbps	-4965
lish	-4966
odan	-4967
oner	-4968
onom	-4969
otiv	-4970
pace	-4971
rict	-4972
sole	-4973
umbo	-4974
ympt	-4975
▁1-1	-4976
▁Bus	-4977
▁CAM	-4978
▁CPE	-4979
▁DLP	-4980
▁Est	-4981
▁MTU	-4982
▁May	-4983
▁PKI	-4984
▁Pos	-4985
▁SMS	-4986
▁SSL	-4987
▁Sim	-4988
▁TES	-4989
▁Tro	-4990
▁Var	-4991
▁XHR	-4992
▁adj	-4993
▁art	-4994
▁awk	-4995
▁bug	-4996
▁ear	-4997
▁eli	-4998
▁hub	-4999
▁opp	-5000
▁pen	-5001
▁rob	-5002
Layer	-5003
Point	-5004
acity	-5005
acted	-5006
andsh	-5007
avail	-5008
doors	-5009
essed	-5010
icken	-5011
igger	-5012
ijack	-5013
inger	-5014
layer	-5015
local	-5016
paren	-5017
perly	-5018
priet	-5019
rosst	-5020
tters	-5021
uffer	-5022
veill	-5023
where	-5024
▁Band	-5025
▁Biom	-5026
▁Burp	-5027
▁DATA	-5028
▁Deny	-5029
▁Dial	-5030
▁Dump	-5031
▁Even	-5032
▁ICON	-5033
▁ISDN	-5034
▁LLMs	-5035
▁Logs	-5036
▁Mall	-5037
▁Mesh	-5038
▁Mode	-5039
▁NICs	-5040
▁NOTE	-5041
▁Peer	-5042
▁RFID	-5043
▁Rack	-5044
▁Russ	-5045
▁Send	-5046
▁TKIP	-5047
▁Very	-5048
▁anti	-5049
▁cool	-5050
▁door	-5051
▁fake	-5052
▁fast	-5053
▁harm	-5054
▁hold	-5055
▁lapt	-5056
▁mind	-5057
▁nmap	-5058
▁proc	-5059
▁reve	-5060
▁save	-5061
▁seen	-5062
▁sure	-5063
▁thro	-5064
▁unus	-5065
▁wait	-5066
ALLENG	-5067
assemb	-5068
asters	-5069
author	-5070
ectrum	-5071
endent	-5072
ership	-5073
licant	-5074
mpting	-5075
rowave	-5076
▁Apple	-5077
▁Categ	-5078
▁Flood	-5079
▁Focus	-5080
▁Group	-5081
▁Locks	-5082
▁Mitig	-5083
▁Offic	-5084
▁Optic	-5085
▁Separ	-5086
▁Shell	-5087
▁Short	-5088
▁Speed	-5089
▁Suite	-5090
▁Wired	-5091
▁alloc	-5092
▁brain	-5093
▁codes	-5094
▁dynam	-5095
▁fixed	-5096
▁forms	-5097
▁lever	-5098
▁lists	-5099
▁older	-5100
▁proof	-5101
▁query	-5102
▁rapid	-5103
▁stage	-5104
▁stats	-5105
▁templ	-5106
▁trick	-5107
▁unint	-5108
▁visit	-5109
▁write	-5110
▁years	-5111
Service	-5112
actions	-5113
atility	-5114
crypted	-5115
ditions	-5116
erature	-5117
grading	-5118
itories	-5119
related	-5120
▁(.*)/,	-5121
▁Americ	-5122
▁Apache	-5123
▁Crypto	-5124
▁Establ	-5125
▁Impact	-5126
▁Option	-5127
▁Shodan	-5128
▁Survey	-5129
▁Utiliz	-5130
▁actual	-5131
▁agents	-5132
▁analog	-5133
▁assist	-5134
▁circum	-5135
▁compet	-5136
▁credit	-5137
▁duplex	-5138
▁elimin	-5139
▁enable	-5140
▁except	-5141
▁hosted	-5142
▁incomp	-5143
▁legacy	-5144
▁modern	-5145
▁modify	-5146
▁naming	-5147
▁nearby	-5148
▁outlet	-5149
▁routes	-5150
▁serves	-5151
▁stolen	-5152
▁syntax	-5153
▁taking	-5154
▁tested	-5155
▁throug	-5156
▁trying	-5157
▁widely	-5158
adecimal	-5159
ceptible	-5160
ological	-5161
prietary	-5162
rosstalk	-5163
▁COMMAND	-5164
▁Compare	-5165
▁Logging	-5166
▁Monitor	-5167
▁Passing	-5168
▁Require	-5169
▁Sharing	-5170
▁Sniffer	-5171
▁TESTING	-5172
▁Trusted	-5173
▁Various	-5174
▁Viruses	-5175
▁centers	-5176
▁chapter	-5177
▁ciphers	-5178
▁compare	-5179
▁convent	-5180
▁derived	-5181
▁dynamic	-5182
▁exposed	-5183
▁focuses	-5184
▁helpful	-5185
▁package	-5186
▁passing	-5187
▁passive	-5188
▁queries	-5189
▁reflect	-5190
▁removed	-5191
▁schemes	-5192
▁sophist	-5193
▁stealth	-5194
▁streams	-5195
▁typical	-5196
available	-5197
veillance	-5198
▁Database	-5199
▁Download	-5200
▁Hardware	-5201
▁Identity	-5202
▁Transfer	-5203
▁analyzer	-5204
▁antennas	-5205
▁backdoor	-5206
▁capacity	-5207
▁category	-5208
▁coverage	-5209
▁decrypts	-5210
▁defaults	-5211
▁demonstr	-5212
▁directed	-5213
▁escaping	-5214
▁explicit	-5215
▁humidity	-5216
▁intruder	-5217
▁powerful	-5218
▁rollback	-5219
▁timeline	-5220
configured	-5221
positories	-5222
▁Computing	-5223
▁Honeypots	-5224
▁Responder	-5225
▁adversary	-5226
▁agreement	-5227
▁appliance	-5228
▁balancing	-5229
▁broadband	-5230
▁buildings	-5231
▁challenge	-5232
▁databases	-5233
▁described	-5234
▁emergency	-5235
▁endpoints	-5236
▁increases	-5237
▁intention	-5238
▁inventory	-5239
▁jurisdict	-5240
▁landscape	-5241
▁multicast	-5242
▁presented	-5243
▁provision	-5244
▁published	-5245
▁responses	-5246
▁scenarios	-5247
▁supported	-5248
▁telephone	-5249
▁transport	-5250
▁untrusted	-5251
▁validated	-5252
undamentals	-5253
▁Acceptable	-5254
▁Automation	-5255
▁Collisions	-5256
▁Government	-5257
▁Inspection	-5258
▁appliances	-5259
▁asymmetric	-5260
▁continuity	-5261
▁executable	-5262
▁governance	-5263
▁inspection	-5264
▁maintained	-5265
▁persistent	-5266
▁ransomware	-5267
▁signatures	-5268
▁systematic	-5269
▁throughout	-5270
▁aggregation	-5271
▁categorized	-5272
▁credibility	-5273
▁dynamically	-5274
▁frequencies	-5275
▁measurement	-5276
▁methodology	-5277
▁Insufficient	-5278
▁theHarvester	-5279
▁Administrator	-5280
▁Differentiate	-5281
▁Organizations	-5282
▁authenticated	-5283
▁investigation	-5284
▁Classification	-5285
▁administration	-5286
/1	-5287
AG	-5288
De	-5289
IR	-5290
IV	-5291
KP	-5292
LO	-5293
On	-5294
SD	-5295
TL	-5296
Un	-5297
VD	-5298
fb	-5299
ht	-5300
ne	-5301
su	-5302
td	-5303
3.2	-5304
369	-5305
AID	-5306
ASP	-5307
CSI	-5308
Loc	-5309
OCS	-5310
___	-5311
aid	-5312
aim	-5313
baf	-5314
bfe	-5315
bin	-5316
can	-5317
ene	-5318
ept	-5319
exp	-5320
fix	-5321
ild	-5322
ius	-5323
kit	-5324
lig	-5325
pot	-5326
tra	-5327
umb	-5328
urt	-5329
▁""	-5330
▁(2	-5331
▁1,	-5332
▁5,	-5333
▁My	-5334
▁OC	-5335
▁Sk	-5336
▁TV	-5337
▁UN	-5338
▁di	-5339
▁op	-5340
▁●4	-5341
.1.2	-5342
0123	-5343
2382	-5344
2954	-5345
Port	-5346
YBER	-5347
adio	-5348
arms	-5349
aste	-5350
eign	-5351
encH	-5352
eter	-5353
fusc	-5354
ibly	-5355
iver	-5356
kens	-5357
lers	-5358
mely	-5359
oked	-5360
prot	-5361
quer	-5362
rete	-5363
ring	-5364
rink	-5365
ster	-5366
such	-5367
type	-5368
uble	-5369
▁300	-5370
▁ACK	-5371
▁AES	-5372
▁ATM	-5373
▁Hel	-5374
▁ICS	-5375
▁Law	-5376
▁Oct	-5377
▁RAT	-5378
▁SHA	-5379
▁She	-5380
▁Spy	-5381
▁Sup	-5382
▁UPS	-5383
▁ask	-5384
▁cut	-5385
▁isn	-5386
▁let	-5387
▁mix	-5388
▁ser	-5389
87369	-5390
Inter	-5391
andid	-5392
apped	-5393
avers	-5394
bfebe	-5395
check	-5396
erout	-5397
icles	-5398
inary	-5399
itten	-5400
ormal	-5401
owers	-5402
ypass	-5403
yslog	-5404
▁Comb	-5405
▁JSON	-5406
▁LABS	-5407
▁Loop	-5408
▁Remo	-5409
▁Role	-5410
▁Tool	-5411
▁Zone	-5412
▁auto	-5413
▁camp	-5414
▁coll	-5415
▁dial	-5416
▁echo	-5417
▁educ	-5418
▁mesh	-5419
▁pars	-5420
▁pers	-5421
▁prec	-5422
▁prob	-5423
▁scal	-5424
▁tamp	-5425
▁wall	-5426
▁warm	-5427
▁word	-5428
▁●1-1	-5429
850123	-5430
ESCRIP	-5431
arized	-5432
atives	-5433
atural	-5434
driven	-5435
eserve	-5436
iffers	-5437
inning	-5438
lectro	-5439
licate	-5440
master	-5441
onical	-5442
remely	-5443
stitut	-5444
undant	-5445
urance	-5446
▁Alert	-5447
▁Blues	-5448
▁Input	-5449
▁Multi	-5450
▁Often	-5451
▁Sever	-5452
▁TOOLS	-5453
▁Where	-5454
▁arbit	-5455
▁badge	-5456
▁black	-5457
▁clean	-5458
▁craft	-5459
▁crash	-5460
▁crime	-5461
▁cross	-5462
▁exact	-5463
▁false	-5464
▁flaws	-5465
▁guest	-5466
▁items	-5467
▁legis	-5468
▁looks	-5469
▁rooms	-5470
▁shown	-5471
▁stand	-5472
▁today	-5473
▁trace	-5474
GbaseER	-5475
eedback	-5476
ercises	-5477
erequis	-5478
ervisor	-5479
iveness	-5480
jacking	-5481
malware	-5482
oneypot	-5483
ossible	-5484
ression	-5485
▁172.16	-5486
▁Allows	-5487
▁Associ	-5488
▁Basics	-5489
▁During	-5490
▁Engine	-5491
▁Enumer	-5492
▁Factor	-5493
▁Filter	-5494
▁Models	-5495
▁Number	-5496
▁Rights	-5497
▁Script	-5498
▁States	-5499
▁Status	-5500
▁Syntax	-5501
▁appear	-5502
▁binary	-5503
▁buffer	-5504
▁choose	-5505
▁confir	-5506
▁denial	-5507
▁duties	-5508
▁filter	-5509
▁finger	-5510
▁formal	-5511
▁google	-5512
▁handsh	-5513
▁hidden	-5514
▁insert	-5515
▁intent	-5516
▁manner	-5517
▁member	-5518
▁mostly	-5519
▁passes	-5520
▁relies	-5521
▁replay	-5522
▁retrie	-5523
▁sensor	-5524
▁signed	-5525
▁starts	-5526
▁workst	-5527
counting	-5528
expected	-5529
ffective	-5530
lligencH	-5531
location	-5532
rounding	-5533
▁America	-5534
▁Cameras	-5535
▁Carrier	-5536
▁Chicken	-5537
▁Contain	-5538
▁Display	-5539
▁General	-5540
▁Initial	-5541
▁Mallory	-5542
▁Patches	-5543
▁Princip	-5544
▁Registr	-5545
▁Regular	-5546
▁Respons	-5547
▁Subject	-5548
▁Trouble	-5549
▁Whaling	-5550
▁accepts	-5551
▁amounts	-5552
▁appears	-5553
▁carries	-5554
▁cookies	-5555
▁drivers	-5556
▁effects	-5557
▁hashing	-5558
▁insider	-5559
▁insight	-5560
▁inspect	-5561
▁involve	-5562
▁manager	-5563
▁manages	-5564
▁mission	-5565
▁patched	-5566
▁remains	-5567
▁returns	-5568
▁scripts	-5569
▁section	-5570
▁serious	-5571
▁surface	-5572
▁targets	-5573
▁utility	-5574
▁windows	-5575
connected	-5576
criminals	-5577
inguistic	-5578
lications	-5579
owershell	-5580
ultaneous	-5581
ypervisor	-5582
▁Channels	-5583
▁Delivery	-5584
▁Entities	-5585
▁Evidence	-5586
▁Gateways	-5587
▁Metadata	-5588
▁Requires	-5589
▁Restrict	-5590
▁Segments	-5591
▁Shooting	-5592
▁accident	-5593
▁concerns	-5594
▁contract	-5595
▁customer	-5596
▁encrypts	-5597
▁flooding	-5598
▁forensic	-5599
▁hostname	-5600
▁matching	-5601
▁metadata	-5602
▁numerous	-5603
▁property	-5604
▁recorded	-5605
▁reviewed	-5606
▁securing	-5607
▁strength	-5608
▁subjects	-5609
▁template	-5610
▁updating	-5611
ESCRIPTION	-5612
▁Addresses	-5613
▁Analyzers	-5614
▁Authority	-5615
▁Baselines	-5616
▁Broadband	-5617
▁Institute	-5618
▁Medianets	-5619
▁Multicast	-5620
▁Processes	-5621
▁Questions	-5622
▁Signature	-5623
▁Technical	-5624
▁arbitrary	-5625
▁baselines	-5626
▁construct	-5627
▁correctly	-5628
▁dangerous	-5629
▁decisions	-5630
▁decrypted	-5631
▁executing	-5632
▁exploited	-5633
▁honeypots	-5634
▁maintains	-5635
▁placement	-5636
▁processed	-5637
▁segmented	-5638
▁workflows	-5639
▁Addressing	-5640
▁Challenges	-5641
▁Controller	-5642
▁Privileged	-5643
▁Regulatory	-5644
▁Supplicant	-5645
▁approaches	-5646
▁attempting	-5647
▁background	-5648
▁capability	-5649
▁compatible	-5650
▁conditions	-5651
▁containing	-5652
▁developers	-5653
▁forwarding	-5654
▁identifier	-5655
▁production	-5656
▁protecting	-5657
▁regulatory	-5658
▁resolution	-5659
▁restricted	-5660
▁validation	-5661
▁Operational	-5662
▁Performance	-5663
▁Synchronous	-5664
▁Utilization	-5665
▁destruction	-5666
▁differences	-5667
▁distributed	-5668
▁remediation	-5669
▁researchers	-5670
▁utilization	-5671
▁wavelengths	-5672
anonymization	-5673
▁Fundamentals	-5674
▁Requirements	-5675
▁Verification	-5676
▁architecture	-5677
▁improvements	-5678
▁sanitization	-5679
▁surveillance	-5680
▁Authenticator	-5681
▁Documentation	-5682
▁compatibility	-5683
▁Organizational	-5684
▁countermeasures	-5685
▁electromagnetic	-5686
%2	-5687
*]	-5688
-9	-5689
25	-5690
3:	-5691
4,	-5692
4:	-5693
59	-5694
65	-5695
7,	-5696
70	-5697
8:	-5698
9%	-5699
BA	-5700
DA	-5701
DF	-5702
LA	-5703
SI	-5704
TR	-5705
UR	-5706
WS	-5707
WW	-5708
Wh	-5709
eh	-5710
lu	-5711
md	-5712
my	-5713
nm	-5714
ns	-5715
ra	-5716
wd	-5717
wr	-5718
▁;	-5719
▁]	-5720
/24	-5721
ANK	-5722
CII	-5723
DNS	-5724
ECT	-5725
IMO	-5726
IND	-5727
ITH	-5728
IoT	-5729
MHz	-5730
ODE	-5731
Red	-5732
TTP	-5733
VAC	-5734
aka	-5735
arp	-5736
bee	-5737
cat	-5738
dir	-5739
dtd	-5740
ium	-5741
lif	-5742
lus	-5743
omb	-5744
phr	-5745
rix	-5746
tom	-5747
try	-5748
ulk	-5749
ury	-5750
way	-5751
▁(8	-5752
▁4-	-5753
▁6-	-5754
▁66	-5755
▁Di	-5756
▁IV	-5757
▁Jo	-5758
▁Vi	-5759
▁●2	-5760
▁●3	-5761
.111	-5762
HOME	-5763
LITY	-5764
NAME	-5765
Name	-5766
ONET	-5767
Requ	-5768
SIEM	-5769
Simp	-5770
TAIN	-5771
WORK	-5772
aign	-5773
ailo	-5774
blob	-5775
cent	-5776
eder	-5777
empt	-5778
fing	-5779
grad	-5780
hing	-5781
iend	-5782
ival	-5783
lier	-5784
oler	-5785
oser	-5786
ream	-5787
ries	-5788
sint	-5789
tage	-5790
term	-5791
trap	-5792
uate	-5793
ults	-5794
utes	-5795
▁1.1	-5796
▁1.3	-5797
▁568	-5798
▁800	-5799
▁ACT	-5800
▁BGP	-5801
▁BKP	-5802
▁CPU	-5803
▁Che	-5804
▁DMZ	-5805
▁Dro	-5806
▁GHz	-5807
▁Geo	-5808
▁Hub	-5809
▁ISC	-5810
▁Job	-5811
▁LTE	-5812
▁Par	-5813
▁RFC	-5814
▁SFP	-5815
▁War	-5816
▁Win	-5817
▁Zig	-5818
▁bon	-5819
▁equ	-5820
▁fam	-5821
▁had	-5822
▁iOS	-5823
▁lsb	-5824
▁mer	-5825
▁ran	-5826
▁war	-5827
EOINT	-5828
OCSIS	-5829
REATE	-5830
TeamP	-5831
appro	-5832
filtr	-5833
gener	-5834
grade	-5835
icial	-5836
iency	-5837
ising	-5838
ithub	-5839
lines	-5840
loads	-5841
loper	-5842
lying	-5843
mount	-5844
naiss	-5845
oneyn	-5846
orary	-5847
otion	-5848
ouble	-5849
paces	-5850
posal	-5851
ptime	-5852
rared	-5853
under	-5854
utral	-5855
vable	-5856
▁Bits	-5857
▁Card	-5858
▁Fees	-5859
▁From	-5860
▁Info	-5861
▁Make	-5862
▁Mask	-5863
▁Need	-5864
▁Next	-5865
▁OSIN	-5866
▁OSPF	-5867
▁POST	-5868
▁PRES	-5869
▁Play	-5870
▁RIPv	-5871
▁Rate	-5872
▁Real	-5873
▁Repl	-5874
▁SMTP	-5875
▁Scre	-5876
▁Size	-5877
▁Star	-5878
▁Tact	-5879
▁Temp	-5880
▁Text	-5881
▁Warm	-5882
▁acqu	-5883
▁bend	-5884
▁biom	-5885
▁cong	-5886
▁dump	-5887
▁ends	-5888
▁fall	-5889
▁flag	-5890
▁kept	-5891
▁leak	-5892
▁left	-5893
▁pins	-5894
▁pret	-5895
▁qual	-5896
▁remn	-5897
▁self	-5898
▁sequ	-5899
▁slow	-5900
▁spam	-5901
▁suff	-5902
▁sugg	-5903
▁turn	-5904
▁upon	-5905
Office	-5906
Simple	-5907
acting	-5908
advant	-5909
anence	-5910
anners	-5911
apshot	-5912
attack	-5913
ecause	-5914
elling	-5915
erical	-5916
eroute	-5917
erview	-5918
esents	-5919
filter	-5920
formed	-5921
itable	-5922
iverse	-5923
ording	-5924
otspot	-5925
preter	-5926
respon	-5927
rolled	-5928
script	-5929
siders	-5930
▁ASCII	-5931
▁Allow	-5932
▁Benef	-5933
▁CYBER	-5934
▁Click	-5935
▁Enhan	-5936
▁Entry	-5937
▁Field	-5938
▁Grade	-5939
▁Graph	-5940
▁Incre	-5941
▁Label	-5942
▁Links	-5943
▁Logic	-5944
▁Login	-5945
▁Manag	-5946
▁Metas	-5947
▁North	-5948
▁OWASP	-5949
▁Plain	-5950
▁Racks	-5951
▁Radio	-5952
▁SONET	-5953
▁THANK	-5954
▁Their	-5955
▁Toler	-5956
▁Units	-5957
▁adapt	-5958
▁alarm	-5959
▁among	-5960
▁arise	-5961
▁aware	-5962
▁claim	-5963
▁click	-5964
▁drops	-5965
▁escal	-5966
▁fully	-5967
▁indep	-5968
▁light	-5969
▁lower	-5970
▁optim	-5971
▁outer	-5972
▁panel	-5973
▁phase	-5974
▁piece	-5975
▁quant	-5976
▁recon	-5977
▁repro	-5978
▁sympt	-5979
▁whaat	-5980
▁whole	-5981
GbaseSR	-5982
Request	-5983
Scripts	-5984
ailover	-5985
defined	-5986
dictive	-5987
domains	-5988
elining	-5989
istered	-5990
release	-5991
scripts	-5992
urrence	-5993
ustomer	-5994
verting	-5995
▁Actors	-5996
▁Analog	-5997
▁Bridge	-5998
▁Cables	-5999
▁Center	-6000
▁Datagr	-6001
▁Deploy	-6002
▁Ensure	-6003
▁Kernel	-6004
▁Manual	-6005
▁Output	-6006
▁Record	-6007
▁Retake	-6008
▁TACACS	-6009
▁Things	-6010
▁Vendor	-6011
▁Zigbee	-6012
▁alarms	-6013
▁behind	-6014
▁bridge	-6015
▁compar	-6016
▁copied	-6017
▁factor	-6018
▁finish	-6019
▁freely	-6020
▁guards	-6021
▁hijack	-6022
▁infect	-6023
▁looser	-6024
▁module	-6025
▁observ	-6026
▁overhe	-6027
▁prefer	-6028
▁radius	-6029
▁reject	-6030
▁remain	-6031
▁resili	-6032
▁revers	-6033
▁spread	-6034
▁sprink	-6035
▁thrott	-6036
▁tokens	-6037
▁trojan	-6038
▁window	-6039
CHALLENG	-6040
RedTeamP	-6041
Username	-6042
firewall	-6043
inations	-6044
oneynets	-6045
rollment	-6046
▁Battery	-6047
▁Comprom	-6048
▁Ethical	-6049
▁Failure	-6050
▁Hacking	-6051
▁Looking	-6052
▁Officer	-6053
▁Outline	-6054
▁Program	-6055
▁Reports	-6056
▁Results	-6057
▁SOCMINT	-6058
▁Special	-6059
▁Specify	-6060
▁Website	-6061
▁achieve	-6062
▁affects	-6063
▁cameras	-6064
▁commerc	-6065
▁continu	-6066
▁convers	-6067
▁detects	-6068
▁dialect	-6069
▁dropped	-6070
▁enforce	-6071
▁exhaust	-6072
▁finance	-6073
▁focused	-6074
▁formats	-6075
▁greater	-6076
▁however	-6077
▁labeled	-6078
▁lessons	-6079
▁logical	-6080
▁matches	-6081
▁million	-6082
▁natural	-6083
▁optical	-6084
▁outlets	-6085
▁percent	-6086
▁reasons	-6087
▁reduces	-6088
▁regions	-6089
▁relates	-6090
▁routine	-6091
▁smaller	-6092
▁strands	-6093
▁uncover	-6094
▁voltage	-6095
naissance	-6096
sequences	-6097
▁Archives	-6098
▁Cellular	-6099
▁Configur	-6100
▁Contains	-6101
▁Duration	-6102
▁Industry	-6103
▁Location	-6104
▁Manually	-6105
▁Patterns	-6106
▁Problems	-6107
▁Scanning	-6108
▁Sequence	-6109
▁Sniffers	-6110
▁Stateful	-6111
▁Supports	-6112
▁Telegram	-6113
▁accuracy	-6114
▁accurate	-6115
▁agencies	-6116
▁analyzed	-6117
▁baseband	-6118
▁cellular	-6119
▁continue	-6120
▁deletion	-6121
▁evaluate	-6122
▁exposure	-6123
▁gathered	-6124
▁incoming	-6125
▁infected	-6126
▁ipconfig	-6127
▁labeling	-6128
▁managers	-6129
▁material	-6130
▁monitors	-6131
▁navigate	-6132
▁nslookup	-6133
▁operates	-6134
▁possibly	-6135
▁preserve	-6136
▁priority	-6137
▁reassemb	-6138
▁registry	-6139
▁releases	-6140
▁remember	-6141
▁retained	-6142
▁schedule	-6143
▁selected	-6144
▁stealthy	-6145
▁versions	-6146
▁xxeserve	-6147
controlled	-6148
filtration	-6149
ilitarized	-6150
▁Attackers	-6151
▁Automated	-6152
▁Canonical	-6153
▁Crossover	-6154
▁Detecting	-6155
▁Detective	-6156
▁Directory	-6157
▁Discovery	-6158
▁Gathering	-6159
▁Objective	-6160
▁Providers	-6161
▁Proximity	-6162
▁Sensitive	-6163
▁Stateless	-6164
▁according	-6165
▁alternate	-6166
▁analytics	-6167
▁antivirus	-6168
▁attention	-6169
▁combining	-6170
▁detecting	-6171
▁disasters	-6172
▁discovery	-6173
▁downloads	-6174
▁extremely	-6175
▁interpret	-6176
▁messaging	-6177
▁numerical	-6178
▁ownership	-6179
▁poisoning	-6180
▁recording	-6181
▁redundant	-6182
▁replacing	-6183
▁safeguard	-6184
▁searching	-6185
▁utilities	-6186
CHALLENGING	-6187
erequisites	-6188
information	-6189
▁Bottleneck	-6190
▁Dashboards	-6191
▁Individual	-6192
▁Interfaces	-6193
▁Metasploit	-6194
▁Mitigation	-6195
▁Processing	-6196
▁Repository	-6197
▁Saturation	-6198
▁Weaknesses	-6199
▁actionable	-6200
▁complexity	-6201
▁conducting	-6202
▁deployment	-6203
▁injectable	-6204
▁integrated	-6205
▁previously	-6206
▁privileged	-6207
▁represents	-6208
▁segmenting	-6209
▁unexpected	-6210
lectrostatic	-6211
▁DESCRIPTION	-6212
▁Destination	-6213
▁Methodology	-6214
▁Overlapping	-6215
▁correctness	-6216
▁departments	-6217
▁designation	-6218
▁determining	-6219
▁enumeration	-6220
▁overwhelmed	-6221
▁smartphones	-6222
▁susceptible	-6223
▁unavailable	-6224
authorization	-6225
▁Interference	-6226
▁Intermediate	-6227
▁Manipulation	-6228
▁conferencing	-6229
▁manipulation	-6230
▁modification	-6231
▁periodically	-6232
▁simultaneous	-6233
▁communicating	-6234
▁effectiveness	-6235
▁fragmentation	-6236
▁relationships	-6237
▁sophisticated	-6238
▁transmissions	-6239
owershellScripts	-6240
";	-6241
%9	-6242
)2	-6243
--	-6244
.”	-6245
18	-6246
3]	-6247
44	-6248
48	-6249
69	-6250
7:	-6251
93	-6252
:"	-6253
=1	-6254
Ac	-6255
FT	-6256
IO	-6257
Le	-6258
OB	-6259
OL	-6260
PD	-6261
QU	-6262
RG	-6263
SM	-6264
Sn	-6265
TM	-6266
To	-6267
VE	-6268
We	-6269
ca	-6270
cb	-6271
hs	-6272
mn	-6273
oy	-6274
sc	-6275
▁?	-6276
();	-6277
024	-6278
5.2	-6279
DMI	-6280
ECR	-6281
ELE	-6282
Get	-6283
HRA	-6284
QoS	-6285
RRP	-6286
SEC	-6287
ULN	-6288
WAP	-6289
\__	-6290
arb	-6291
dis	-6292
hom	-6293
hoo	-6294
iro	-6295
lab	-6296
nov	-6297
ock	-6298
png	-6299
tok	-6300
ton	-6301
ube	-6302
vil	-6303
|3]	-6304
▁#4	-6305
▁14	-6306
▁30	-6307
▁55	-6308
▁8.	-6309
▁Hi	-6310
▁ON	-6311
▁PC	-6312
▁TR	-6313
▁WS	-6314
▁dd	-6315
▁il	-6316
▁sw	-6317
▁yy	-6318
.155	-6319
.323	-6320
:002	-6321
:100	-6322
:137	-6323
FIND	-6324
File	-6325
GDPR	-6326
Http	-6327
Inst	-6328
REQU	-6329
Step	-6330
VoIP	-6331
abit	-6332
adow	-6333
ailg	-6334
aily	-6335
aker	-6336
alue	-6337
anal	-6338
atio	-6339
avor	-6340
boot	-6341
ceed	-6342
down	-6343
fect	-6344
hema	-6345
izon	-6346
mail	-6347
mall	-6348
mmar	-6349
mode	-6350
olar	-6351
open	-6352
oral	-6353
orer	-6354
orph	-6355
osed	-6356
pack	-6357
phot	-6358
pion	-6359
recy	-6360
reds	-6361
rend	-6362
send	-6363
tego	-6364
wers	-6365
wise	-6366
with	-6367
▁###	-6368
▁(..	-6369
▁10.	-6370
▁1=1	-6371
▁2.0	-6372
▁2.2	-6373
▁5.3	-6374
▁ALL	-6375
▁BAS	-6376
▁Bon	-6377
▁CAs	-6378
▁CEO	-6379
▁Cho	-6380
▁Due	-6381
▁Dup	-6382
▁EIA	-6383
▁Fac	-6384
▁Has	-6385
▁Hex	-6386
▁IDs	-6387
▁Jav	-6388
▁Lat	-6389
▁MIT	-6390
▁OID	-6391
▁Omn	-6392
▁PCI	-6393
▁PPA	-6394
▁Pol	-6395
▁RFI	-6396
▁Ref	-6397
▁SSH	-6398
▁See	-6399
▁TEL	-6400
▁aid	-6401
▁arp	-6402
▁bal	-6403
▁bor	-6404
▁bus	-6405
▁dat	-6406
▁div	-6407
▁gap	-6408
▁his	-6409
▁ide	-6410
▁ign	-6411
▁lif	-6412
▁mac	-6413
▁neg	-6414
▁raw	-6415
▁sal	-6416
▁scr	-6417
▁spy	-6418
▁sup	-6419
▁tap	-6420
.63.2	-6421
01000	-6422
01010	-6423
:0000	-6424
Class	-6425
ELETE	-6426
ENTED	-6427
ERABI	-6428
Local	-6429
abber	-6430
agery	-6431
aight	-6432
asure	-6433
ayout	-6434
elnet	-6435
enced	-6436
entil	-6437
eserv	-6438
gency	-6439
homed	-6440
ician	-6441
icing	-6442
ience	-6443
iling	-6444
iping	-6445
liant	-6446
ortun	-6447
quate	-6448
scale	-6449
scrib	-6450
token	-6451
ufact	-6452
virus	-6453
▁0001	-6454
▁128-	-6455
▁ADSL	-6456
▁Buil	-6457
▁CCMP	-6458
▁Char	-6459
▁Cost	-6460
▁Eval	-6461
▁Geos	-6462
▁HDMI	-6463
▁Inde	-6464
▁Less	-6465
▁Life	-6466
▁Live	-6467
▁Lock	-6468
▁MIMO	-6469
▁Miss	-6470
▁OFDM	-6471
▁PaaS	-6472
▁Prim	-6473
▁Prof	-6474
▁RAID	-6475
▁SOAP	-6476
▁TOOL	-6477
▁VRRP	-6478
▁WITH	-6479
▁Wire	-6480
▁aren	-6481
▁argu	-6482
▁bulk	-6483
▁coax	-6484
▁coup	-6485
▁days	-6486
▁evil	-6487
▁hide	-6488
▁hint	-6489
▁http	-6490
▁hund	-6491
▁isol	-6492
▁laug	-6493
▁libr	-6494
▁pull	-6495
▁quit	-6496
▁sbin	-6497
011011	-6498
Domain	-6499
Encaps	-6500
Public	-6501
alties	-6502
amming	-6503
asible	-6504
baseFX	-6505
ension	-6506
eption	-6507
iented	-6508
ifiers	-6509
igabit	-6510
istory	-6511
lusion	-6512
normal	-6513
orphic	-6514
ournal	-6515
passwd	-6516
phrase	-6517
ribute	-6518
▁Activ	-6519
▁Bring	-6520
▁Clean	-6521
▁Clear	-6522
▁Cycle	-6523
▁DHCPv	-6524
▁Defin	-6525
▁Deter	-6526
▁Escal	-6527
▁False	-6528
▁Indic	-6529
▁Libre	-6530
▁OSINF	-6531
▁Phase	-6532
▁Purch	-6533
▁Scope	-6534
▁Valid	-6535
▁alter	-6536
▁bands	-6537
▁blind	-6538
▁bound	-6539
▁bring	-6540
▁comes	-6541
▁court	-6542
▁daily	-6543
▁divid	-6544
▁doors	-6545
▁finds	-6546
▁fixes	-6547
▁gains	-6548
▁glass	-6549
▁heads	-6550
▁hping	-6551
▁illeg	-6552
▁index	-6553
▁influ	-6554
▁later	-6555
▁never	-6556
▁opens	-6557
▁overl	-6558
▁plans	-6559
▁prove	-6560
▁recip	-6561
▁scans	-6562
▁sched	-6563
▁storm	-6564
▁thing	-6565
▁thous	-6566
▁touch	-6567
▁trunk	-6568
▁vital	-6569
▁whois	-6570
▁worms	-6571
Address	-6572
GbaseSW	-6573
REQUEST	-6574
acebook	-6575
ardless	-6576
atively	-6577
attacks	-6578
avesdro	-6579
closure	-6580
inguish	-6581
istence	-6582
istical	-6583
managed	-6584
matched	-6585
network	-6586
onomous	-6587
oration	-6588
pionage	-6589
ruption	-6590
unction	-6591
verview	-6592
▁1|2|3]	-6593
▁Aggreg	-6594
▁Altern	-6595
▁Anomal	-6596
▁Before	-6597
▁Bluesn	-6598
▁Broken	-6599
▁DELETE	-6600
▁Divide	-6601
▁Ethics	-6602
▁GEOINT	-6603
▁Health	-6604
▁Linked	-6605
▁Manage	-6606
▁Moving	-6607
▁Multip	-6608
▁Resili	-6609
▁Second	-6610
▁Shared	-6611
▁Should	-6612
▁TELNET	-6613
▁begins	-6614
▁coming	-6615
▁correl	-6616
▁decode	-6617
▁digest	-6618
▁effort	-6619
▁energy	-6620
▁enough	-6621
▁expect	-6622
▁export	-6623
▁facial	-6624
▁friend	-6625
▁hybrid	-6626
▁inputs	-6627
▁interv	-6628
▁launch	-6629
▁limits	-6630
▁opened	-6631
▁overwr	-6632
▁parser	-6633
▁phones	-6634
▁prompt	-6635
▁scheme	-6636
▁states	-6637
▁stream	-6638
▁strong	-6639
▁sudden	-6640
▁travel	-6641
▁unprot	-6642
ULNERABI	-6643
Wireless	-6644
andidate	-6645
arantine	-6646
ervisory	-6647
ierarchy	-6648
itioners	-6649
llingcat	-6650
password	-6651
register	-6652
▁Attempt	-6653
▁BASTION	-6654
▁Because	-6655
▁CONTAIN	-6656
▁Coaxial	-6657
▁Conduct	-6658
▁Contact	-6659
▁Ensures	-6660
▁Evasion	-6661
▁Lessons	-6662
▁Maltego	-6663
▁Manager	-6664
▁Maximum	-6665
▁Package	-6666
▁Problem	-6667
▁Project	-6668
▁Respond	-6669
▁Several	-6670
▁XMLHttp	-6671
▁adverse	-6672
▁combine	-6673
▁consist	-6674
▁console	-6675
▁consult	-6676
▁copying	-6677
▁country	-6678
▁custody	-6679
▁dealing	-6680
▁defines	-6681
▁efforts	-6682
▁enables	-6683
▁entries	-6684
▁granted	-6685
▁hacking	-6686
▁instant	-6687
▁leading	-6688
▁leaving	-6689
▁letters	-6690
▁mindful	-6691
▁missing	-6692
▁offline	-6693
▁payment	-6694
▁rapidly	-6695
▁readers	-6696
▁removes	-6697
▁replace	-6698
▁restore	-6699
▁sandbox	-6700
▁scanner	-6701
▁spoofed	-6702
▁started	-6703
▁transit	-6704
▁trigger	-6705
▁unknown	-6706
▁written	-6707
arvesting	-6708
interrupt	-6709
otivation	-6710
stitution	-6711
unication	-6712
▁00001010	-6713
▁10011011	-6714
▁Addition	-6715
▁Breaches	-6716
▁European	-6717
▁Exchange	-6718
▁Feedback	-6719
▁Fragment	-6720
▁Infrared	-6721
▁Measures	-6722
▁Rollback	-6723
▁Terminal	-6724
▁Timeline	-6725
▁Transmit	-6726
▁accepted	-6727
▁achieved	-6728
▁alerting	-6729
▁criminal	-6730
▁defining	-6731
▁encoding	-6732
▁entirely	-6733
▁entities	-6734
▁everyone	-6735
▁examples	-6736
▁failover	-6737
▁filtered	-6738
▁findings	-6739
▁granting	-6740
▁hundreds	-6741
▁implicit	-6742
▁limiting	-6743
▁obtained	-6744
▁opportun	-6745
▁outlines	-6746
▁partners	-6747
▁presents	-6748
▁produced	-6749
▁profiles	-6750
▁reducing	-6751
▁reported	-6752
▁searches	-6753
▁shielded	-6754
▁spanning	-6755
▁spectrum	-6756
▁suitable	-6757
▁supplier	-6758
▁troubles	-6759
entilation	-6760
undamental	-6761
▁Algorithm	-6762
▁Bandwidth	-6763
▁Community	-6764
▁Direction	-6765
▁Discharge	-6766
▁Establish	-6767
▁Financial	-6768
▁Marketing	-6769
▁Mirroring	-6770
▁PRESENTED	-6771
▁Placement	-6772
▁Potential	-6773
▁Privilege	-6774
▁Protected	-6775
▁Sometimes	-6776
▁Timelines	-6777
▁backdoors	-6778
▁certified	-6779
▁conducted	-6780
▁depending	-6781
▁discharge	-6782
▁handshake	-6783
▁happening	-6784
▁immediate	-6785
▁indicator	-6786
▁marketing	-6787
▁materials	-6788
▁microwave	-6789
▁padbuster	-6790
▁regularly	-6791
▁requiring	-6792
▁responder	-6793
▁scripting	-6794
▁signaling	-6795
▁specified	-6796
▁switching	-6797
▁therefore	-6798
▁thousands	-6799
▁verifying	-6800
ailbreaking	-6801
appropriate	-6802
▁Approaches	-6803
▁Attributes	-6804
▁Autonomous	-6805
▁Biometrics	-6806
▁Categories	-6807
▁Credential	-6808
▁Definition	-6809
▁Generation	-6810
▁Indicators	-6811
▁Production	-6812
▁Profession	-6813
▁Resolution	-6814
▁Wavelength	-6815
▁commercial	-6816
▁completely	-6817
▁congestion	-6818
▁credential	-6819
▁determined	-6820
▁disconnect	-6821
▁extracting	-6822
▁industries	-6823
▁intercepts	-6824
▁leveraging	-6825
▁passphrase	-6826
▁percentage	-6827
▁prevention	-6828
▁recovering	-6829
▁responding	-6830
▁situations	-6831
▁terminated	-6832
▁translates	-6833
▁underlying	-6834
▁weaknesses	-6835
ULNERABILITY	-6836
idirectional	-6837
▁192.168.1.0	-6838
▁255.255.0.0	-6839
▁255.255.255	-6840
▁Configuring	-6841
▁Development	-6842
▁Documenting	-6843
▁Hexadecimal	-6844
▁LibreOffice	-6845
▁Replication	-6846
▁Specialized	-6847
▁Traditional	-6848
▁assessments	-6849
▁compromises	-6850
▁containment	-6851
▁conventions	-6852
▁correlation	-6853
▁demonstrate	-6854
▁description	-6855
▁enforcement	-6856
▁established	-6857
▁establishes	-6858
▁fundamental	-6859
▁governments	-6860
▁permanently	-6861
▁proprietary	-6862
▁requirement	-6863
▁unprotected	-6864
▁Geographical	-6865
▁IntelligencH	-6866
▁authenticate	-6867
▁consequences	-6868
▁dependencies	-6869
▁identifiable	-6870
▁increasingly	-6871
▁notification	-6872
▁overwhelming	-6873
▁transactions	-6874
▁troubleshoot	-6875
oconfiguration	-6876
▁Authorization	-6877
▁Demilitarized	-6878
▁International	-6879
▁consideration	-6880
▁XMLHttpRequest	-6881
#”	-6882
%5	-6883
("	-6884
)?	-6885
+]	-6886
-0	-6887
06	-6888
09	-6889
2,	-6890
2.	-6891
4)	-6892
4.	-6893
43	-6894
50	-6895
5”	-6896
6,	-6897
76	-6898
89	-6899
:9	-6900
=/	-6901
AK	-6902
CC	-6903
Ch	-6904
Cr	-6905
DC	-6906
EB	-6907
EF	-6908
FA	-6909
GB	-6910
GC	-6911
Go	-6912
HE	-6913
Id	-6914
NC	-6915
OF	-6916
Os	-6917
PT	-6918
Ph	-6919
Pr	-6920
SP	-6921
Su	-6922
TC	-6923
TS	-6924
UC	-6925
ci	-6926
cu	-6927
db	-6928
fl	-6929
fo	-6930
nc	-6931
oE	-6932
oj	-6933
-2:	-6934
-3:	-6935
-4:	-6936
.10	-6937
/12	-6938
005	-6939
104	-6940
365	-6941
484	-6942
5.1	-6943
5:9	-6944
64-	-6945
7.4	-6946
:41	-6947
:74	-6948
ACL	-6949
ARN	-6950
ART	-6951
CAT	-6952
CSP	-6953
Div	-6954
ESD	-6955
Fil	-6956
IPA	-6957
JEC	-6958
LOG	-6959
MEN	-6960
NIC	-6961
OOB	-6962
ORT	-6963
Pro	-6964
RAM	-6965
RFC	-6966
ROU	-6967
Res	-6968
SSL	-6969
URE	-6970
WPA	-6971
YOD	-6972
ags	-6973
ccd	-6974
cop	-6975
enu	-6976
eps	-6977
iad	-6978
ift	-6979
iny	-6980
lev	-6981
ley	-6982
lid	-6983
msg	-6984
ole	-6985
oop	-6986
pin	-6987
set	-6988
ssh	-6989
udy	-6990
uff	-6991
ugg	-6992
ush	-6993
xoj	-6994
yes	-6995
▁-6	-6996
▁13	-6997
▁1]	-6998
▁2,	-6999
▁42	-7000
▁DC	-7001
▁DE	-7002
▁Gn	-7003
▁HP	-7004
▁IM	-7005
▁MX	-7006
▁NA	-7007
▁OT	-7008
▁UP	-7009
▁eX	-7010
▁iS	-7011
▁ic	-7012
▁my	-7013
▁vm	-7014
!*1.	-7015
###”	-7016
0:8:	-7017
:187	-7018
ALID	-7019
ECOM	-7020
HTTP	-7021
IPAA	-7022
MENT	-7023
OVER	-7024
Once	-7025
VLAN	-7026
WILL	-7027
also	-7028
card	-7029
cell	-7030
cert	-7031
conf	-7032
ened	-7033
entr	-7034
estr	-7035
free	-7036
gery	-7037
grep	-7038
icks	-7039
iltr	-7040
irty	-7041
ivot	-7042
lude	-7043
mpty	-7044
olit	-7045
omes	-7046
only	-7047
orse	-7048
peer	-7049
petr	-7050
sens	-7051
stat	-7052
trac	-7053
ypad	-7054
▁1.2	-7055
▁1.4	-7056
▁127	-7057
▁169	-7058
▁3.1	-7059
▁400	-7060
▁500	-7061
▁600	-7062
▁AUP	-7063
▁And	-7064
▁Ask	-7065
▁BNC	-7066
▁But	-7067
▁CAN	-7068
▁CER	-7069
▁DAC	-7070
▁Dep	-7071
▁Ess	-7072
▁GSM	-7073
▁Hot	-7074
▁IIS	-7075
▁ISP	-7076
▁MSA	-7077
▁Map	-7078
▁Mat	-7079
▁Mic	-7080
▁Mob	-7081
▁NAS	-7082
▁NET	-7083
▁New	-7084
▁PCs	-7085
▁QoS	-7086
▁RES	-7087
▁SLA	-7088
▁Sal	-7089
▁TAG	-7090
▁TTL	-7091
▁Try	-7092
▁UNI	-7093
▁Unn	-7094
▁WMI	-7095
▁Yes	-7096
▁\__	-7097
▁bnm	-7098
▁fit	-7099
▁flo	-7100
▁inj	-7101
▁lic	-7102
▁net	-7103
▁old	-7104
▁put	-7105
▁say	-7106
▁sem	-7107
▁she	-7108
▁sid	-7109
▁slo	-7110
▁spe	-7111
▁tre	-7112
▁url	-7113
▁vac	-7114
▁|_|	-7115
.0/24	-7116
8:137	-7117
:95:9	-7118
BaseT	-7119
CRIPT	-7120
HRASE	-7121
Ports	-7122
SCADA	-7123
State	-7124
Trans	-7125
alluc	-7126
andum	-7127
anels	-7128
anies	-7129
anted	-7130
asets	-7131
asted	-7132
crack	-7133
icode	-7134
iding	-7135
idual	-7136
losed	-7137
mable	-7138
onics	-7139
orpor	-7140
orter	-7141
state	-7142
techn	-7143
umans	-7144
uming	-7145
using	-7146
write	-7147
▁"484	-7148
▁00:0	-7149
▁APIs	-7150
▁Baud	-7151
▁CHAP	-7152
▁Core	-7153
▁DSSS	-7154
▁Door	-7155
▁Flow	-7156
▁Four	-7157
▁Goal	-7158
▁HVAC	-7159
▁Home	-7160
▁Just	-7161
▁Keep	-7162
▁King	-7163
▁LANs	-7164
▁Like	-7165
▁Maps	-7166
▁Meas	-7167
▁Near	-7168
▁None	-7169
▁PING	-7170
▁Path	-7171
▁Redu	-7172
▁Reli	-7173
▁Smur	-7174
▁Task	-7175
▁VPNs	-7176
▁WANs	-7177
▁WILL	-7178
▁attr	-7179
▁barr	-7180
▁body	-7181
▁craf	-7182
▁cult	-7183
▁curl	-7184
▁dark	-7185
▁dict	-7186
▁ecos	-7187
▁edge	-7188
▁edit	-7189
▁evol	-7190
▁exit	-7191
▁five	-7192
▁flaw	-7193
▁heat	-7194
▁hole	-7195
▁join	-7196
▁kill	-7197
▁maps	-7198
▁mark	-7199
▁news	-7200
▁obso	-7201
▁past	-7202
▁peer	-7203
▁plug	-7204
▁pool	-7205
▁prem	-7206
▁safe	-7207
▁tact	-7208
▁talk	-7209
▁thor	-7210
▁wild	-7211
▁wipe	-7212
▁zero	-7213
00.155	-7214
7.45.2	-7215
Attack	-7216
Filter	-7217
Server	-7218
ansmit	-7219
arming	-7220
asting	-7221
atches	-7222
broken	-7223
chestr	-7224
commod	-7225
ecured	-7226
ederal	-7227
eignty	-7228
enario	-7229
factor	-7230
idence	-7231
illing	-7232
imming	-7233
luding	-7234
making	-7235
ociate	-7236
ooping	-7237
orizon	-7238
parent	-7239
patial	-7240
system	-7241
terior	-7242
urning	-7243
▁2001:	-7244
▁Agent	-7245
▁Books	-7246
▁Chief	-7247
▁China	-7248
▁Contr	-7249
▁Crime	-7250
▁Drive	-7251
▁Enfor	-7252
▁Error	-7253
▁Expos	-7254
▁Fault	-7255
▁Flash	-7256
▁Force	-7257
▁Gnome	-7258
▁Honey	-7259
▁IPsec	-7260
▁JavaS	-7261
▁Memor	-7262
▁Meter	-7263
▁Modes	-7264
▁Octal	-7265
▁PASSP	-7266
▁Prior	-7267
▁Probe	-7268
▁RECOM	-7269
▁SNORT	-7270
▁Sends	-7271
▁Sense	-7272
▁Storm	-7273
▁Terms	-7274
▁Thank	-7275
▁Third	-7276
▁Usage	-7277
▁VALID	-7278
▁Worms	-7279
▁Wrapp	-7280
▁brows	-7281
▁count	-7282
▁crack	-7283
▁doing	-7284
▁early	-7285
▁effic	-7286
▁egrep	-7287
▁empty	-7288
▁extra	-7289
▁guess	-7290
▁iSCSI	-7291
▁initi	-7292
▁inode	-7293
▁jumbo	-7294
▁keeps	-7295
▁meant	-7296
▁meter	-7297
▁money	-7298
▁paste	-7299
▁paths	-7300
▁posts	-7301
▁probe	-7302
▁punch	-7303
▁react	-7304
▁saves	-7305
▁scene	-7306
▁thumb	-7307
▁toner	-7308
▁unstr	-7309
▁waits	-7310
▁water	-7311
▁white	-7312
▁whose	-7313
▁“###”	-7314
:74:187	-7315
Account	-7316
alancer	-7317
ampling	-7318
anation	-7319
apshots	-7320
authent	-7321
compass	-7322
convert	-7323
ensions	-7324
ethered	-7325
install	-7326
loading	-7327
lusions	-7328
present	-7329
sequent	-7330
service	-7331
through	-7332
tivists	-7333
usually	-7334
▁Alerts	-7335
▁Assign	-7336
▁Breach	-7337
▁Bypass	-7338
▁Choose	-7339
▁DOCSIS	-7340
▁Decode	-7341
▁Design	-7342
▁Employ	-7343
▁Events	-7344
▁Faster	-7345
▁Github	-7346
▁Guards	-7347
▁Insert	-7348
▁Invert	-7349
▁Jabber	-7350
▁Length	-7351
▁Modern	-7352
▁Recomm	-7353
▁Schema	-7354
▁Shadow	-7355
▁Supply	-7356
▁Victim	-7357
▁adhere	-7358
▁adjust	-7359
▁advert	-7360
▁almost	-7361
▁audits	-7362
▁builds	-7363
▁choice	-7364
▁clause	-7365
▁closed	-7366
▁comply	-7367
▁crimes	-7368
▁defeat	-7369
▁digits	-7370
▁driver	-7371
▁faulty	-7372
▁forums	-7373
▁guides	-7374
▁halluc	-7375
▁intern	-7376
▁labels	-7377
▁laptop	-7378
▁laughs	-7379
▁leaves	-7380
▁mainly	-7381
▁months	-7382
▁moving	-7383
▁multip	-7384
▁oracle	-7385
▁passed	-7386
▁penetr	-7387
▁permit	-7388
▁phases	-7389
▁prefix	-7390
▁propos	-7391
▁ranges	-7392
▁reader	-7393
▁reboot	-7394
▁repeat	-7395
▁schema	-7396
▁sector	-7397
▁shares	-7398
▁strict	-7399
▁styles	-7400
▁tagged	-7401
▁topics	-7402
▁toward	-7403
▁uptime	-7404
Division	-7405
alancers	-7406
analysis	-7407
estation	-7408
itioning	-7409
iversity	-7410
outbound	-7411
putation	-7412
regation	-7413
resource	-7414
security	-7415
tlenecks	-7416
ymorphic	-7417
▁169.254	-7418
▁2001:41	-7419
▁Another	-7420
▁Billion	-7421
▁Company	-7422
▁Custody	-7423
▁Domains	-7424
▁English	-7425
▁Explore	-7426
▁Focuses	-7427
▁Hotspot	-7428
▁Payment	-7429
▁Preserv	-7430
▁Rooting	-7431
▁Russian	-7432
▁Sensors	-7433
▁Similar	-7434
▁Tactics	-7435
▁Through	-7436
▁Unicast	-7437
▁Unicode	-7438
▁answers	-7439
▁bridges	-7440
▁coaxial	-7441
▁cooling	-7442
▁counter	-7443
▁crashes	-7444
▁divided	-7445
▁enacted	-7446
▁engines	-7447
▁exactly	-7448
▁finding	-7449
▁handles	-7450
▁happens	-7451
▁infiltr	-7452
▁journal	-7453
▁keeping	-7454
▁matched	-7455
▁minutes	-7456
▁modules	-7457
▁nothing	-7458
▁ongoing	-7459
▁opening	-7460
▁partial	-7461
▁predict	-7462
▁resolve	-7463
▁sharing	-7464
▁shorter	-7465
▁strings	-7466
▁summary	-7467
▁suspect	-7468
▁tablets	-7469
▁tagging	-7470
▁tcpdump	-7471
▁travers	-7472
ailgating	-7473
encrypted	-7474
gradation	-7475
▁10.0.0.1	-7476
▁11001000	-7477
▁217.45.2	-7478
▁Benefits	-7479
▁Commands	-7480
▁Concerns	-7481
▁Discover	-7482
▁Facebook	-7483
▁Imperson	-7484
▁Implicit	-7485
▁National	-7486
▁Publicly	-7487
▁RECOMMEN	-7488
▁Removing	-7489
▁Rootkits	-7490
▁Scenario	-7491
▁Specific	-7492
▁Subscrib	-7493
▁Updating	-7494
▁Workflow	-7495
▁accesses	-7496
▁accommod	-7497
▁applying	-7498
▁avoiding	-7499
▁barriers	-7500
▁blocking	-7501
▁carrying	-7502
▁compares	-7503
▁computes	-7504
▁contacts	-7505
▁creation	-7506
▁datasets	-7507
▁downtime	-7508
▁enforced	-7509
▁entering	-7510
▁failures	-7511
▁feasible	-7512
▁gateways	-7513
▁incompat	-7514
▁institut	-7515
▁interest	-7516
▁keyboard	-7517
▁modifies	-7518
▁national	-7519
▁obsolete	-7520
▁occurred	-7521
▁overhead	-7522
▁prevents	-7523
▁question	-7524
▁remnants	-7525
▁restored	-7526
▁rootkits	-7527
▁snapshot	-7528
▁stealing	-7529
▁switched	-7530
▁symptoms	-7531
▁thorough	-7532
▁unbroken	-7533
▁wildcard	-7534
persistent	-7535
unications	-7536
▁127.0.0.1	-7537
▁Antivirus	-7538
▁Avoidance	-7539
▁Certified	-7540
▁Depending	-7541
▁Determine	-7542
▁Disadvant	-7543
▁Documents	-7544
▁Emergency	-7545
▁Essential	-7546
▁Execution	-7547
▁Honeynets	-7548
▁Important	-7549
▁Mandatory	-7550
▁Multimode	-7551
▁Padbuster	-7552
▁Plaintext	-7553
▁Reporting	-7554
▁Splitting	-7555
▁Strategic	-7556
▁achieving	-7557
▁addressed	-7558
▁beginning	-7559
▁biometric	-7560
▁capturing	-7561
▁carefully	-7562
▁constrain	-7563
▁crosstalk	-7564
▁currently	-7565
▁dependent	-7566
▁designing	-7567
▁destroyed	-7568
▁developer	-7569
▁discussed	-7570
▁duplicate	-7571
▁ecosystem	-7572
▁eliminate	-7573
▁espionage	-7574
▁exercises	-7575
▁fragments	-7576
▁generates	-7577
▁hardening	-7578
▁identical	-7579
▁mandatory	-7580
▁minimizes	-7581
▁mirroring	-7582
▁multimode	-7583
▁penalties	-7584
▁proactive	-7585
▁publishes	-7586
▁recipient	-7587
▁remanence	-7588
▁removable	-7589
▁scheduled	-7590
▁statement	-7591
▁transmits	-7592
▁unsecured	-7593
chestration	-7594
▁Accounting	-7595
▁Activities	-7596
▁Collecting	-7597
▁Compromise	-7598
▁Deployment	-7599
▁Electronic	-7600
▁Geospatial	-7601
▁Importance	-7602
▁JavaScript	-7603
▁Memorandum	-7604
▁Modulation	-7605
▁Networking	-7606
▁PASSPHRASE	-7607
▁Personally	-7608
▁Predictive	-7609
▁Ransomware	-7610
▁Revocation	-7611
▁Supporting	-7612
▁Topologies	-7613
▁WSregister	-7614
▁Workspaces	-7615
▁acceptance	-7616
▁accidental	-7617
▁businesses	-7618
▁calculates	-7619
▁circumvent	-7620
▁comparison	-7621
▁delivering	-7622
▁distribute	-7623
▁efficiency	-7624
▁enrollment	-7625
▁executives	-7626
▁extraction	-7627
▁generation	-7628
▁hypervisor	-7629
▁installing	-7630
▁linguistic	-7631
▁mismatched	-7632
▁occurrence	-7633
▁pretending	-7634
▁principles	-7635
▁saturation	-7636
▁separately	-7637
▁statements	-7638
▁subdomains	-7639
▁subsequent	-7640
▁suggestion	-7641
▁supporting	-7642
▁technician	-7643
▁unintended	-7644
▁volatility	-7645
8:137:74:187	-7646
▁Assessments	-7647
▁Containment	-7648
▁Destruction	-7649
▁Distributed	-7650
▁Permissions	-7651
▁Reliability	-7652
▁Sensitivity	-7653
▁Uninterrupt	-7654
▁association	-7655
▁attachments	-7656
▁competitors	-7657
▁coordinated	-7658
▁correlating	-7659
▁effectively	-7660
▁efficiently	-7661
▁facilitates	-7662
▁fingerprint	-7663
▁independent	-7664
▁interesting	-7665
▁maintenance	-7666
▁programming	-7667
▁propagation	-7668
▁reassembled	-7669
▁redirection	-7670
▁reliability	-7671
▁replacement	-7672
▁sensitivity	-7673
▁temperature	-7674
▁termination	-7675
▁transaction	-7676
▁transmitter	-7677
▁virtualized	-7678
▁workstation	-7679
Encapsulation	-7680
▁192.168.63.2	-7681
▁Encapsulated	-7682
▁Professional	-7683
▁communicates	-7684
▁exfiltration	-7685
▁expectations	-7686
▁implications	-7687
▁intermediate	-7688
▁multiplexing	-7689
▁presentation	-7690
▁provisioning	-7691
▁representing	-7692
authentication	-7693
communications	-7694
▁255.255.255.0	-7695
▁Electrostatic	-7696
▁Terminologies	-7697
▁international	-7698
▁misconfigured	-7699
▁Accountability	-7700
▁Administrative	-7701
▁Cybercriminals	-7702
▁Implementation	-7703
▁Initialization	-7704
▁certifications	-7705
▁hallucinations	-7706
▁prioritization	-7707
▁Classifications	-7708
▁Uninterruptible	-7709
▁classifications	-7710
▁synchronization	-7711
')	-7712
'.	-7713
/3	-7714
13	-7715
22	-7716
2:	-7717
56	-7718
60	-7719
6:	-7720
7.	-7721
8,	-7722
81	-7723
94	-7724
;)	-7725
=0	-7726
?”	-7727
AI	-7728
An	-7729
BF	-7730
CB	-7731
Co	-7732
DB	-7733
DO	-7734
DV	-7735
Do	-7736
EY	-7737
GO	-7738
GU	-7739
HO	-7740
It	-7741
Lo	-7742
MM	-7743
Mb	-7744
OC	-7745
RJ	-7746
RM	-7747
Rx	-7748
SN	-7749
TF	-7750
WK	-7751
ah	-7752
cl	-7753
fi	-7754
hm	-7755
js	-7756
rd	-7757
wh	-7758
yb	-7759
yr	-7760
▁q	-7761
');	-7762
-1:	-7763
-59	-7764
-5:	-7765
-6:	-7766
-7:	-7767
.31	-7768
.64	-7769
021	-7770
12,	-7771
536	-7772
AUP	-7773
Bas	-7774
CAP	-7775
CEN	-7776
CES	-7777
CIO	-7778
CRC	-7779
Cre	-7780
DED	-7781
DER	-7782
DLP	-7783
DSU	-7784
DTD	-7785
Des	-7786
EFI	-7787
EMI	-7788
FDM	-7789
Hub	-7790
IEC	-7791
ISA	-7792
ISO	-7793
Imp	-7794
JON	-7795
Key	-7796
Mal	-7797
NAC	-7798
NAS	-7799
PCI	-7800
PII	-7801
PSK	-7802
ROM	-7803
Reg	-7804
Rem	-7805
STE	-7806
TDM	-7807
TLS	-7808
UPS	-7809
USB	-7810
UST	-7811
WAN	-7812
WDM	-7813
Why	-7814
abb	-7815
ael	-7816
ali	-7817
ami	-7818
ape	-7819
asm	-7820
bug	-7821
dom	-7822
dos	-7823
dot	-7824
eek	-7825
elc	-7826
has	-7827
hib	-7828
hoc	-7829
hop	-7830
how	-7831
htm	-7832
ici	-7833
itt	-7834
ogn	-7835
oob	-7836
rec	-7837
rem	-7838
sim	-7839
tml	-7840
uit	-7841
une	-7842
web	-7843
xed	-7844
xyz	-7845
▁(9	-7846
▁),	-7847
▁1)	-7848
▁1-	-7849
▁3)	-7850
▁3-	-7851
▁34	-7852
▁4,	-7853
▁48	-7854
▁53	-7855
▁86	-7856
▁90	-7857
▁Az	-7858
▁CD	-7859
▁EN	-7860
▁Fl	-7861
▁GP	-7862
▁HR	-7863
▁MD	-7864
▁MI	-7865
▁NC	-7866
▁NE	-7867
▁NS	-7868
▁PT	-7869
▁SE	-7870
▁Sw	-7871
▁Tx	-7872
▁gg	-7873
▁ir	-7874
▁mk	-7875
▁rm	-7876
▁wq	-7877
▁|_	-7878
▁●5	-7879
-201	-7880
.10:	-7881
.206	-7882
.8.8	-7883
/128	-7884
:200	-7885
ABLE	-7886
ARIO	-7887
BYOD	-7888
CODE	-7889
CSMA	-7890
Chat	-7891
DISC	-7892
FIED	-7893
FIGU	-7894
GROU	-7895
HIDS	-7896
ISDN	-7897
LOGS	-7898
Mode	-7899
OSIX	-7900
Open	-7901
Peer	-7902
Prop	-7903
RAID	-7904
RFID	-7905
Rout	-7906
Sign	-7907
Text	-7908
UEBA	-7909
___.	-7910
adem	-7911
agaz	-7912
amed	-7913
angs	-7914
auri	-7915
auth	-7916
cons	-7917
data	-7918
desk	-7919
ewal	-7920
ffer	-7921
fill	-7922
firm	-7923
gree	-7924
home	-7925
icle	-7926
ighb	-7927
ilig	-7928
inds	-7929
isco	-7930
iscu	-7931
ised	-7932
itud	-7933
long	-7934
null	-7935
omic	-7936
orad	-7937
quir	-7938
reed	-7939
rent	-7940
repl	-7941
ress	-7942
rint	-7943
root	-7944
seud	-7945
supp	-7946
test	-7947
usic	-7948
vals	-7949
wire	-7950
xies	-7951
yzer	-7952
▁1.0	-7953
▁101	-7954
▁13%	-7955
▁23)	-7956
▁256	-7957
▁99%	-7958
▁AIS	-7959
▁BCP	-7960
▁Bit	-7961
▁CRL	-7962
▁CSU	-7963
▁DVD	-7964
▁Dig	-7965
▁EMM	-7966
▁EOL	-7967
▁ESD	-7968
▁Enc	-7969
▁Far	-7970
▁Fix	-7971
▁GRE	-7972
▁Hab	-7973
▁Hal	-7974
▁Hat	-7975
▁IPs	-7976
▁Kit	-7977
▁MAN	-7978
▁MIC	-7979
▁Mon	-7980
▁NAC	-7981
▁NGO	-7982
▁Naz	-7983
▁PAN	-7984
▁PAT	-7985
▁PII	-7986
▁POP	-7987
▁PRI	-7988
▁PTP	-7989
▁PWK	-7990
▁Pen	-7991
▁PoC	-7992
▁PoE	-7993
▁RAM	-7994
▁RET	-7995
▁RSA	-7996
▁Ren	-7997
▁SDN	-7998
▁SEL	-7999
▁SIG	-8000
▁Spl	-8001
▁Tor	-8002
▁UGC	-8003
▁URG	-8004
▁WAF	-8005
▁WAP	-8006
▁WPS	-8007
▁Wee	-8008
▁Wit	-8009
▁__/	-8010
▁__|	-8011
▁ade	-8012
▁ais	-8013
▁bud	-8014
▁cit	-8015
▁cyp	-8016
▁did	-8017
▁dom	-8018
▁emp	-8019
▁enr	-8020
▁far	-8021
▁fee	-8022
▁fig	-8023
▁hot	-8024
▁ine	-8025
▁job	-8026
▁max	-8027
▁mim	-8028
▁pay	-8029
▁pin	-8030
▁row	-8031
▁ssh	-8032
ATINT	-8033
Basic	-8034
Cloud	-8035
ECRET	-8036
Level	-8037
SLAAC	-8038
STASK	-8039
Snort	-8040
Virus	-8041
amber	-8042
amble	-8043
anmar	-8044
apers	-8045
arity	-8046
armer	-8047
books	-8048
craft	-8049
duces	-8050
eeded	-8051
ensus	-8052
erate	-8053
erver	-8054
essel	-8055
essus	-8056
estic	-8057
event	-8058
flood	-8059
frame	-8060
iance	-8061
ismet	-8062
ittle	-8063
leted	-8064
marks	-8065
mplif	-8066
orted	-8067
rally	-8068
shell	-8069
snort	-8070
split	-8071
uggle	-8072
valid	-8073
vered	-8074
which	-8075
▁1|2]	-8076
▁Adds	-8077
▁Apps	-8078
▁Bomb	-8079
▁CONS	-8080
▁Capt	-8081
▁Case	-8082
▁Chef	-8083
▁DDNS	-8084
▁Dane	-8085
▁Does	-8086
▁Drop	-8087
▁Fair	-8088
▁Fake	-8089
▁Fast	-8090
▁Gets	-8091
▁Hand	-8092
▁Have	-8093
▁Help	-8094
▁Hint	-8095
▁Hubs	-8096
▁IMAP	-8097
▁Jack	-8098
▁Jobs	-8099
▁Kali	-8100
▁Laws	-8101
▁Lays	-8102
▁MTRJ	-8103
▁OIDs	-8104
▁PART	-8105
▁Pair	-8106
▁Pool	-8107
▁Prom	-8108
▁Prop	-8109
▁Retr	-8110
▁Ring	-8111
▁SCEN	-8112
▁SQLI	-8113
▁Same	-8114
▁Scal	-8115
▁Soft	-8116
▁Sold	-8117
▁Spam	-8118
▁Step	-8119
▁TFTP	-8120
▁Tamp	-8121
▁That	-8122
▁True	-8123
▁UEFI	-8124
▁Unix	-8125
▁Vers	-8126
▁View	-8127
▁WHAT	-8128
▁Wide	-8129
▁Word	-8130
▁Zero	-8131
▁aids	-8132
▁away	-8133
▁conv	-8134
▁cord	-8135
▁draw	-8136
▁drop	-8137
▁foot	-8138
▁goes	-8139
▁gran	-8140
▁heav	-8141
▁held	-8142
▁html	-8143
▁jump	-8144
▁mail	-8145
▁none	-8146
▁null	-8147
▁paid	-8148
▁pred	-8149
▁prom	-8150
▁rows	-8151
▁seem	-8152
▁stop	-8153
▁tick	-8154
▁tree	-8155
▁vary	-8156
▁vide	-8157
▁welc	-8158
▁worn	-8159
.10:80	-8160
72.206	-8161
ATIONS	-8162
Access	-8163
CREATE	-8164
FIGURA	-8165
GbaseT	-8166
Remote	-8167
Select	-8168
TIFIED	-8169
Ubuntu	-8170
afting	-8171
agrams	-8172
anging	-8173
arfing	-8174
ashion	-8175
aurant	-8176
client	-8177
common	-8178
either	-8179
enames	-8180
encode	-8181
ertise	-8182
figure	-8183
icians	-8184
icting	-8185
ikChat	-8186
imeter	-8187
isters	-8188
itally	-8189
izable	-8190
length	-8191
lients	-8192
likely	-8193
manent	-8194
mploys	-8195
ortium	-8196
secret	-8197
stance	-8198
stream	-8199
verter	-8200
wanted	-8201
witter	-8202
▁(.*)\	-8203
▁(...)	-8204
▁Abuse	-8205
▁Alarm	-8206
▁Anten	-8207
▁Areas	-8208
▁BSSID	-8209
▁Bonus	-8210
▁CNAME	-8211
▁Cisco	-8212
▁Cooks	-8213
▁GOALS	-8214
▁Guest	-8215
▁Indep	-8216
▁India	-8217
▁Jumbo	-8218
▁LEARN	-8219
▁Least	-8220
▁Macro	-8221
▁Magaz	-8222
▁Major	-8223
▁Mauri	-8224
▁Modem	-8225
▁Names	-8226
▁Osint	-8227
▁POSIX	-8228
▁Panel	-8229
▁Plans	-8230
▁Proof	-8231
▁Quant	-8232
▁Rapid	-8233
▁SNMPv	-8234
▁Sheep	-8235
▁Since	-8236
▁Small	-8237
▁Smurf	-8238
▁Solar	-8239
▁Study	-8240
▁Takes	-8241
▁Theft	-8242
▁Toner	-8243
▁Union	-8244
▁Value	-8245
▁White	-8246
▁Wrong	-8247
▁adher	-8248
▁agree	-8249
▁choos	-8250
▁cords	-8251
▁creat	-8252
▁decre	-8253
▁dumps	-8254
▁equal	-8255
▁estim	-8256
▁floor	-8257
▁gangs	-8258
▁graph	-8259
▁holes	-8260
▁imped	-8261
▁leads	-8262
▁leave	-8263
▁logic	-8264
▁manif	-8265
▁milit	-8266
▁misle	-8267
▁mkdir	-8268
▁mouse	-8269
▁moved	-8270
▁newer	-8271
▁noise	-8272
▁overs	-8273
▁owned	-8274
▁pivot	-8275
▁plant	-8276
▁purch	-8277
▁racks	-8278
▁rates	-8279
▁ready	-8280
▁reset	-8281
▁reuse	-8282
▁score	-8283
▁serve	-8284
▁seven	-8285
▁sniff	-8286
▁spons	-8287
▁style	-8288
▁super	-8289
▁topic	-8290
▁twist	-8291
▁typos	-8292
▁units	-8293
▁walls	-8294
▁wants	-8295
▁watch	-8296
▁wohoo	-8297
▁words	-8298
Conquer	-8299
Malware	-8300
Session	-8301
angible	-8302
bugging	-8303
enabled	-8304
forward	-8305
fuscate	-8306
iration	-8307
irodump	-8308
iscuous	-8309
iversal	-8310
mmarize	-8311
olation	-8312
olicies	-8313
parency	-8314
powered	-8315
sandbox	-8316
similar	-8317
special	-8318
tapping	-8319
ualized	-8320
ufactur	-8321
umetric	-8322
viously	-8323
▁(802.1	-8324
▁10.1.2	-8325
▁86.1.1	-8326
▁Always	-8327
▁BadUSB	-8328
▁Binary	-8329
▁Botnet	-8330
▁Cooked	-8331
▁Covert	-8332
▁Denied	-8333
▁Experi	-8334
▁Expert	-8335
▁Farmer	-8336
▁Ground	-8337
▁Habits	-8338
▁Inject	-8339
▁Kismet	-8340
▁Layers	-8341
▁Legacy	-8342
▁Market	-8343
▁Middle	-8344
▁Module	-8345
▁Motion	-8346
▁Multil	-8347
▁Nessus	-8348
▁Obtain	-8349
▁Please	-8350
▁Recogn	-8351
▁Review	-8352
▁Russia	-8353
▁SECRET	-8354
▁SELECT	-8355
▁Secret	-8356
▁Sector	-8357
▁Serial	-8358
▁Syslog	-8359
▁Telnet	-8360
▁Update	-8361
▁Useful	-8362
▁Window	-8363
▁agreed	-8364
▁arrive	-8365
▁belong	-8366
▁bonded	-8367
▁budget	-8368
▁cached	-8369
▁campus	-8370
▁chance	-8371
▁charge	-8372
▁closer	-8373
▁commit	-8374
▁cookie	-8375
▁decide	-8376
▁degree	-8377
▁demand	-8378
▁denies	-8379
▁double	-8380
▁egress	-8381
▁endors	-8382
▁expose	-8383
▁extend	-8384
▁family	-8385
▁floods	-8386
▁hacked	-8387
▁iframe	-8388
▁inquir	-8389
▁joined	-8390
▁keypad	-8391
▁latest	-8392
▁legisl	-8393
▁letter	-8394
▁locked	-8395
▁logger	-8396
▁master	-8397
▁matrix	-8398
▁misuse	-8399
▁nation	-8400
▁native	-8401
▁places	-8402
▁police	-8403
▁prohib	-8404
▁really	-8405
▁recent	-8406
▁render	-8407
▁repair	-8408
▁reveal	-8409
▁robots	-8410
▁robust	-8411
▁sender	-8412
▁serial	-8413
▁severe	-8414
▁spaces	-8415
▁sporad	-8416
▁strike	-8417
▁suffer	-8418
▁suites	-8419
▁tactic	-8420
▁tamper	-8421
▁tasked	-8422
▁thread	-8423
▁timely	-8424
▁tricks	-8425
▁unless	-8426
▁upload	-8427
▁varies	-8428
▁wiping	-8429
.111.111	-8430
Customer	-8431
DISCOVER	-8432
Describe	-8433
Password	-8434
Property	-8435
Research	-8436
ailbreak	-8437
attended	-8438
ecessary	-8439
entional	-8440
entioned	-8441
ethering	-8442
ientific	-8443
irectory	-8444
olicited	-8445
readable	-8446
response	-8447
solution	-8448
▁Anomaly	-8449
▁Anycast	-8450
▁Ciphers	-8451
▁Counter	-8452
▁Decimal	-8453
▁Default	-8454
▁Defense	-8455
▁Editing	-8456
▁Filters	-8457
▁Forgery	-8458
▁Getting	-8459
▁Hosting	-8460
▁Include	-8461
▁Inserts	-8462
▁Jamming	-8463
▁Kingdom	-8464
▁Latency	-8465
▁Metrics	-8466
▁Minimum	-8467
▁Modules	-8468
▁NETWORK	-8469
▁Offline	-8470
▁Optical	-8471
▁Options	-8472
▁Outside	-8473
▁Overall	-8474
▁Primary	-8475
▁Reading	-8476
▁Reflect	-8477
▁Rewrite	-8478
▁Sandbox	-8479
▁Screens	-8480
▁Sending	-8481
▁Spyware	-8482
▁Success	-8483
▁Teaming	-8484
▁Toolkit	-8485
▁Twisted	-8486
▁Typical	-8487
▁Without	-8488
▁Witness	-8489
▁acquire	-8490
▁advance	-8491
▁altered	-8492
▁anycast	-8493
▁assumes	-8494
▁becomes	-8495
▁carrier	-8496
▁century	-8497
▁chamber	-8498
▁corrupt	-8499
▁crafted	-8500
▁deleted	-8501
▁deletes	-8502
▁distort	-8503
▁examine	-8504
▁fastest	-8505
▁fraudul	-8506
▁gigabit	-8507
▁grouped	-8508
▁history	-8509
▁hosting	-8510
▁hunting	-8511
▁imagery	-8512
▁inbound	-8513
▁invalid	-8514
▁issuing	-8515
▁labsLAB	-8516
▁laptops	-8517
▁layered	-8518
▁mantrap	-8519
▁minimal	-8520
▁obtains	-8521
▁offsite	-8522
▁perpetr	-8523
▁powered	-8524
▁prepare	-8525
▁preserv	-8526
▁printer	-8527
▁reduced	-8528
▁respect	-8529
▁reviews	-8530
▁revoked	-8531
▁showing	-8532
▁storing	-8533
▁testers	-8534
▁towards	-8535
▁treated	-8536
▁unified	-8537
▁victims	-8538
▁volumes	-8539
▁welcome	-8540
Encrypted	-8541
PublicKey	-8542
adication	-8543
compasses	-8544
criptions	-8545
echanical	-8546
emination	-8547
fuscation	-8548
including	-8549
installed	-8550
▁192.168.	-8551
▁Alliance	-8552
▁Anything	-8553
▁Approval	-8554
▁Attached	-8555
▁Auditing	-8556
▁Balancer	-8557
▁Complete	-8558
▁Concentr	-8559
▁Contrast	-8560
▁Criminal	-8561
▁Datagram	-8562
▁Displays	-8563
▁Dumpster	-8564
▁Employee	-8565
▁Enhanced	-8566
▁Evaluate	-8567
▁Exposure	-8568
▁Extended	-8569
▁Flooding	-8570
▁Generate	-8571
▁Honeypot	-8572
▁Humidity	-8573
▁Improved	-8574
▁Language	-8575
▁Lighting	-8576
▁LinkedIn	-8577
▁Loopback	-8578
▁Mobility	-8579
▁Netcraft	-8580
▁Pharming	-8581
▁Positive	-8582
▁Possible	-8583
▁Preamble	-8584
▁Provider	-8585
▁Registry	-8586
▁SCENARIO	-8587
▁Shielded	-8588
▁Supplies	-8589
▁Tracking	-8590
▁Wrappers	-8591
▁actively	-8592
▁adequate	-8593
▁aircrack	-8594
▁allocate	-8595
▁campaign	-8596
▁combines	-8597
▁constant	-8598
▁dialects	-8599
▁disposal	-8600
▁eavesdro	-8601
▁employed	-8602
▁enabling	-8603
▁engineer	-8604
▁escalate	-8605
▁extended	-8606
▁granular	-8607
▁improved	-8608
▁improves	-8609
▁incorpor	-8610
▁informal	-8611
▁informed	-8612
▁initiate	-8613
▁magnetic	-8614
▁operated	-8615
▁outgoing	-8616
▁particip	-8617
▁patching	-8618
▁pathping	-8619
▁peripher	-8620
▁position	-8621
▁proposed	-8622
▁receiver	-8623
▁recently	-8624
▁resolves	-8625
▁responds	-8626
▁scanners	-8627
▁severity	-8628
▁skimming	-8629
▁snooping	-8630
▁stateful	-8631
▁straight	-8632
▁struggle	-8633
▁supplied	-8634
▁uncommon	-8635
▁unusable	-8636
▁utilizes	-8637
▁validate	-8638
▁verified	-8639
▁videocon	-8640
FIGURATION	-8641
Multipoint	-8642
changeably	-8643
connection	-8644
especially	-8645
▁Analytics	-8646
▁Analyzing	-8647
▁Available	-8648
▁Bypassing	-8649
▁CERTIFIED	-8650
▁Candidate	-8651
▁Character	-8652
▁ClickOnce	-8653
▁Collected	-8654
▁Companies	-8655
▁Configure	-8656
▁Corporate	-8657
▁Crosstalk	-8658
▁Databases	-8659
▁Deception	-8660
▁Diversity	-8661
▁Effective	-8662
▁Engineers	-8663
▁Executive	-8664
▁Generally	-8665
▁Incorrect	-8666
▁Magazines	-8667
▁Purchased	-8668
▁Represent	-8669
▁Something	-8670
▁Statement	-8671
▁Structure	-8672
▁Supported	-8673
▁TASKSTASK	-8674
▁Tampering	-8675
▁Workflows	-8676
▁alongside	-8677
▁approving	-8678
▁arguments	-8679
▁assessing	-8680
▁attaching	-8681
▁attacking	-8682
▁automatic	-8683
▁balancers	-8684
▁centrally	-8685
▁comparing	-8686
▁compliant	-8687
▁confirmed	-8688
▁delivered	-8689
▁direction	-8690
▁displayed	-8691
▁enforcing	-8692
▁evaluated	-8693
▁expertise	-8694
▁expressed	-8695
▁hierarchy	-8696
▁improving	-8697
▁inserting	-8698
▁installer	-8699
▁lifecycle	-8700
▁listening	-8701
▁malformed	-8702
▁mentioned	-8703
▁microsoft	-8704
▁numbering	-8705
▁objective	-8706
▁obtaining	-8707
▁operators	-8708
▁organized	-8709
▁otherwise	-8710
▁overwhelm	-8711
▁permanent	-8712
▁political	-8713
▁prevented	-8714
▁propagate	-8715
▁reasoning	-8716
▁redirects	-8717
▁registers	-8718
▁resulting	-8719
▁retrieval	-8720
▁revealing	-8721
▁secondary	-8722
▁simulated	-8723
▁sponsored	-8724
▁strategic	-8725
▁streaming	-8726
▁subjected	-8727
▁suspended	-8728
▁tampering	-8729
▁temporary	-8730
▁triggered	-8731
▁upgrading	-8732
▁workloads	-8733
Credentials	-8734
aditionally	-8735
▁Acceptance	-8736
▁Additional	-8737
▁Appliances	-8738
▁Behavioral	-8739
▁Bellingcat	-8740
▁Conclusion	-8741
▁Conducting	-8742
▁Escalation	-8743
▁Forwarding	-8744
▁Frameworks	-8745
▁Functional	-8746
▁Identifier	-8747
▁Initiation	-8748
▁Originally	-8749
▁Performing	-8750
▁Quarantine	-8751
▁Resiliency	-8752
▁Restaurant	-8753
▁Restricted	-8754
▁Tailgating	-8755
▁Volatility	-8756
▁accomplish	-8757
▁aggregated	-8758
▁agreements	-8759
▁artificial	-8760
▁attractive	-8761
▁baselining	-8762
▁beneficial	-8763
▁bottleneck	-8764
▁bruteforce	-8765
▁circulates	-8766
▁continuous	-8767
▁distinctly	-8768
▁downloaded	-8769
▁exhaustion	-8770
▁explicitly	-8771
▁exploiting	-8772
▁facilities	-8773
▁fragmented	-8774
▁functional	-8775
▁guaranteed	-8776
▁harvesting	-8777
▁impossible	-8778
▁improperly	-8779
▁indicating	-8780
▁infiltrate	-8781
▁internally	-8782
▁journalism	-8783
▁managerial	-8784
▁manipulate	-8785
▁minimizing	-8786
▁motivation	-8787
▁onboarding	-8788
▁personally	-8789
▁priorities	-8790
▁processors	-8791
▁recognized	-8792
▁reputation	-8793
▁resilience	-8794
▁responders	-8795
▁retransmit	-8796
▁sequential	-8797
▁standpoint	-8798
▁supplement	-8799
▁traceroute	-8800
▁violations	-8801
▁visibility	-8802
72.206.10:80	-8803
▁Aggregation	-8804
▁Appropriate	-8805
▁Association	-8806
▁Authorities	-8807
▁Bluejacking	-8808
▁Correlation	-8809
▁Differences	-8810
▁Enforcement	-8811
▁Geolocation	-8812
▁Hacktivists	-8813
▁Independent	-8814
▁Interactive	-8815
▁Meterpreter	-8816
▁RECOMMENDED	-8817
▁Temperature	-8818
▁accommodate	-8819
▁challenging	-8820
▁compression	-8821
▁conclusions	-8822
▁configuring	-8823
▁constraints	-8824
▁constructed	-8825
▁criticality	-8826
▁disruptions	-8827
▁impersonate	-8828
▁investigate	-8829
▁legislation	-8830
▁observation	-8831
▁overlapping	-8832
▁perspective	-8833
▁possibility	-8834
▁protections	-8835
▁qualitative	-8836
▁transferred	-8837
▁translation	-8838
▁unsolicited	-8839
▁10.1.200.155	-8840
▁Asynchronous	-8841
▁Bluesnarfing	-8842
▁Jailbreaking	-8843
▁Preservation	-8844
▁Repositories	-8845
▁communicated	-8846
▁compromising	-8847
▁construction	-8848
▁conversation	-8849
▁cyberattacks	-8850
▁descriptions	-8851
▁encapsulates	-8852
▁establishing	-8853
▁geographical	-8854
▁insufficient	-8855
▁investigator	-8856
▁jurisdiction	-8857
▁optimization	-8858
▁prioritizing	-8859
▁quantitative	-8860
▁registration	-8861
▁repositories	-8862
▁synchronized	-8863
▁CONFIGURATION	-8864
▁Comprehensive	-8865
▁Disadvantages	-8866
▁Fragmentation	-8867
▁Impersonation	-8868
▁Investigation	-8869
▁Practitioners	-8870
▁Prerequisites	-8871
▁VULNERABILITY	-8872
▁anonymization	-8873
▁appropriately	-8874
▁authoritative	-8875
▁customization	-8876
▁intentionally	-8877
▁investigative	-8878
▁investigators	-8879
▁modifications	-8880
▁opportunities	-8881
▁accountability	-8882
▁authenticating	-8883
▁reconnaissance	-8884
▁representation	-8885
▁simultaneously	-8886
▁virtualization	-8887
▁Deanonymization	-8888
▁Interconnection	-8889
▁deanonymization	-8890
▁interchangeably	-8891
!)	-8892
")	-8893
",	-8894
%3	-8895
(&	-8896
."	-8897
.%	-8898
/4	-8899
/2	-8900
/5	-8901
0_	-8902
28	-8903
42	-8904
46	-8905
5.	-8906
57	-8907
6%	-8908
66	-8909
77	-8910
9.	-8911
:/	-8912
:3	-8913
:6	-8914
=9	-8915
?)	-8916
AE	-8917
Bl	-8918
Br	-8919
By	-8920
CQ	-8921
DH	-8922
DR	-8923
DY	-8924
HI	-8925
IE	-8926
Is	-8927
MO	-8928
MT	-8929
Mo	-8930
My	-8931
NE	-8932
OV	-8933
Or	-8934
PM	-8935
RC	-8936
RU	-8937
SY	-8938
Sc	-8939
Sh	-8940
TV	-8941
UM	-8942
VW	-8943
YP	-8944
ZE	-8945
_%	-8946
_/	-8947
bc	-8948
cf	-8949
eb	-8950
gy	-8951
la	-8952
ql	-8953
sa	-8954
wl	-8955
ye	-8956
").	-8957
-19	-8958
-6,	-8959
-64	-8960
.27	-8961
10)	-8962
11,	-8963
545	-8964
:16	-8965
:68	-8966
AAA	-8967
ACP	-8968
AES	-8969
Are	-8970
Bot	-8971
Bus	-8972
CER	-8973
CIA	-8974
CPE	-8975
CRL	-8976
DMA	-8977
DMZ	-8978
DON	-8979
DRP	-8980
EAR	-8981
ERE	-8982
ETH	-8983
FIL	-8984
GET	-8985
GRP	-8986
IRB	-8987
ITS	-8988
Int	-8989
MDF	-8990
MDM	-8991
MTD	-8992
NDA	-8993
Net	-8994
ORE	-8995
ORS	-8996
Ops	-8997
PAN	-8998
PAT	-8999
4,5	-9000
Ent	-9001
MOU	-9002
OOK	-9003
OUT	-9004
PHI	-9005
PKI	-9006
PLC	-9007
QDN	-9008
RAS	-9009
RCE	-9010
RPO	-9011
RTO	-9012
RoT	-9013
SIP	-9014
Sec	-9015
ULL	-9016
VSS	-9017
Who	-9018
__/	-9019
add	-9020
afe	-9021
agn	-9022
amm	-9023
awn	-9024
big	-9025
cho	-9026
cmd	-9027
col	-9028
cur	-9029
del	-9030
dev	-9031
don	-9032
fce	-9033
fef	-9034
fit	-9035
fox	-9036
ftp	-9037
gin	-9038
gon	-9039
iEx	-9040
irb	-9041
ker	-9042
lor	-9043
mod	-9044
mon	-9045
mut	-9046
omg	-9047
ont	-9048
orn	-9049
oto	-9050
sen	-9051
ses	-9052
tex	-9053
urb	-9054
usr	-9055
wse	-9056
xee	-9057
xff	-9058
xhr	-9059
yth	-9060
▁**	-9061
▁-1	-9062
▁//	-9063
▁0.	-9064
▁06	-9065
▁17	-9066
▁18	-9067
▁22	-9068
▁28	-9069
▁29	-9070
▁4)	-9071
▁5-	-9072
▁8-	-9073
▁9.	-9074
▁;;	-9075
▁AL	-9076
▁EV	-9077
▁El	-9078
▁Es	-9079
▁Et	-9080
▁GI	-9081
▁HS	-9082
▁Ir	-9083
▁La	-9084
▁MS	-9085
▁OB	-9086
▁OK	-9087
▁Op	-9088
▁PL	-9089
▁RT	-9090
▁SC	-9091
▁SH	-9092
▁Ul	-9093
▁Ur	-9094
▁XX	-9095
▁\|	-9096
▁aa	-9097
▁iB	-9098
▁id	-9099
456	-9100
=16	-9101
OTH	-9102
|_|	-9103
▁ju	-9104
▁nu	-9105
▁ur	-9106
.0.1	-9107
.0.2	-9108
.192	-9109
12:4	-9110
1337	-9111
53.5	-9112
:001	-9113
ACLs	-9114
ACTI	-9115
AGAR	-9116
Anal	-9117
Back	-9118
Buil	-9119
CSRF	-9120
Chan	-9121
Cont	-9122
DHIN	-9123
Dump	-9124
Flow	-9125
Full	-9126
ICMP	-9127
INAL	-9128
IaaS	-9129
NIDS	-9130
NIST	-9131
OOTP	-9132
POST	-9133
PPTP	-9134
PSEC	-9135
PaaS	-9136
SIZE	-9137
SaaS	-9138
TEPS	-9139
Time	-9140
WORD	-9141
Wave	-9142
What	-9143
abot	-9144
acts	-9145
agon	-9146
amil	-9147
amps	-9148
appy	-9149
aren	-9150
aved	-9151
boss	-9152
ceal	-9153
core	-9154
date	-9155
dirb	-9156
eeds	-9157
ench	-9158
esta	-9159
evil	-9160
fail	-9161
ginx	-9162
hand	-9163
haul	-9164
hole	-9165
hops	-9166
igor	-9167
ikes	-9168
imid	-9169
inte	-9170
intr	-9171
inux	-9172
itel	-9173
keys	-9174
king	-9175
ledg	-9176
lest	-9177
mark	-9178
medi	-9179
more	-9180
ogus	-9181
onds	-9182
opef	-9183
oper	-9184
ores	-9185
orks	-9186
orne	-9187
ourn	-9188
outs	-9189
pers	-9190
pite	-9191
pred	-9192
priv	-9193
resh	-9194
rist	-9195
self	-9196
sing	-9197
stac	-9198
uish	-9199
DEX	-9200
SOC	-9201
WWW	-9202
.218	-9203
Evil	-9204
umpt	-9205
unce	-9206
unds	-9207
unks	-9208
urts	-9209
vend	-9210
view	-9211
wave	-9212
whel	-9213
yria	-9214
zens	-9215
▁'__	-9216
▁(12	-9217
▁0.1	-9218
▁155	-9219
▁16-	-9220
▁2.1	-9221
▁2.3	-9222
▁200	-9223
▁3.0	-9224
▁3.2	-9225
▁3.3	-9226
▁31,	-9227
▁4.0	-9228
▁484	-9229
▁655	-9230
▁77.	-9231
▁80,	-9232
▁APC	-9233
▁Add	-9234
▁Arr	-9235
▁Bet	-9236
▁Box	-9237
▁CIA	-9238
▁Cap	-9239
▁DOM	-9240
▁DTD	-9241
▁EUI	-9242
▁EXE	-9243
▁Ear	-9244
▁Edu	-9245
▁FUT	-9246
▁Fob	-9247
▁GAN	-9248
▁Git	-9249
▁INS	-9250
▁IVs	-9251
▁Imm	-9252
▁Its	-9253
▁KDE	-9254
▁KEY	-9255
▁Ker	-9256
▁LEG	-9257
▁Lib	-9258
▁MFA	-9259
▁MOU	-9260
▁NSA	-9261
▁NTP	-9262
▁Neg	-9263
▁Nix	-9264
▁OOB	-9265
▁OWA	-9266
▁Occ	-9267
▁Our	-9268
▁PIN	-9269
▁Pad	-9270
▁Pay	-9271
▁Pod	-9272
▁RCE	-9273
▁RDP	-9274
▁RST	-9275
▁Sam	-9276
▁Ste	-9277
▁Sus	-9278
▁Syn	-9279
▁TPM	-9280
▁TTP	-9281
▁Tar	-9282
▁UPC	-9283
▁Uns	-9284
▁VUE	-9285
▁Veh	-9286
▁WHO	-9287
▁WOR	-9288
▁Way	-9289
▁Wik	-9290
▁abs	-9291
▁ali	-9292
▁bur	-9293
▁car	-9294
▁dns	-9295
▁dot	-9296
▁err	-9297
▁fob	-9298
▁ful	-9299
PDU	-9300
WEB	-9301
cii	-9302
TIVE	-9303
Tube	-9304
WAPP	-9305
utfi	-9306
▁VTC	-9307
▁geo	-9308
▁him	-9309
▁hoc	-9310
▁hol	-9311
▁hon	-9312
▁iso	-9313
▁jam	-9314
▁led	-9315
▁lot	-9316
▁mov	-9317
▁oct	-9318
▁ord	-9319
▁sym	-9320
▁tax	-9321
▁veh	-9322
▁voc	-9323
▁wit	-9324
▁|__	-9325
.0.0.	-9326
3,4,5	-9327
ACKET	-9328
ATION	-9329
Areas	-9330
Brute	-9331
EARCH	-9332
Force	-9333
GBase	-9334
INJEC	-9335
Ident	-9336
Media	-9337
North	-9338
Range	-9339
Seven	-9340
Small	-9341
Stumb	-9342
Suite	-9343
Track	-9344
Trust	-9345
USING	-9346
acent	-9347
admin	-9348
agine	-9349
ained	-9350
akers	-9351
apple	-9352
atial	-9353
atile	-9354
auses	-9355
avels	-9356
avity	-9357
azard	-9358
beros	-9359
chang	-9360
chars	-9361
ching	-9362
class	-9363
coded	-9364
comes	-9365
copes	-9366
dated	-9367
drive	-9368
enses	-9369
ensys	-9370
error	-9371
forms	-9372
grunt	-9373
hemat	-9374
iates	-9375
ields	-9376
ients	-9377
iewer	-9378
iffie	-9379
iggyb	-9380
iment	-9381
imize	-9382
inese	-9383
intel	-9384
inues	-9385
ipped	-9386
isher	-9387
istor	-9388
itate	-9389
iture	-9390
ively	-9391
ivili	-9392
izens	-9393
mails	-9394
mdlet	-9395
miter	-9396
nings	-9397
olves	-9398
oning	-9399
=0(	-9400
CBK	-9401
DONE	-9402
Load	-9403
MIMO	-9404
asma	-9405
:4545	-9406
order	-9407
ostic	-9408
pared	-9409
plore	-9410
reach	-9411
rendy	-9412
share	-9413
small	-9414
solid	-9415
there	-9416
ucing	-9417
urnst	-9418
uters	-9419
worth	-9420
ypert	-9421
ystat	-9422
ython	-9423
▁10.1	-9424
▁5060	-9425
▁AAAA	-9426
▁Alex	-9427
▁Asia	-9428
▁BACK	-9429
▁BITS	-9430
▁Bash	-9431
▁Bend	-9432
▁Body	-9433
▁CCIO	-9434
▁CDMA	-9435
▁CODE	-9436
▁CORS	-9437
▁Camp	-9438
▁Clos	-9439
▁Coax	-9440
▁Cold	-9441
▁Cult	-9442
▁DIRB	-9443
▁DNAT	-9444
▁Date	-9445
▁Deep	-9446
▁Disc	-9447
▁Diss	-9448
▁Econ	-9449
▁Evil	-9450
▁Expr	-9451
▁FROM	-9452
▁Flag	-9453
▁Fore	-9454
▁GPOs	-9455
▁Geof	-9456
▁Good	-9457
▁Gray	-9458
▁Guid	-9459
▁HOME	-9460
▁Heat	-9461
▁ISPs	-9462
▁IaaS	-9463
▁Join	-9464
▁Leak	-9465
▁MITM	-9466
▁Mand	-9467
▁Mate	-9468
▁Mean	-9469
▁Meet	-9470
▁Meta	-9471
▁Mich	-9472
▁OCSP	-9473
▁PASS	-9474
▁PLCs	-9475
▁Pent	-9476
▁Prem	-9477
▁Pros	-9478
▁Push	-9479
▁Runs	-9480
▁SOAR	-9481
▁SOUR	-9482
▁SaaS	-9483
▁Scan	-9484
▁Side	-9485
▁Situ	-9486
▁Slow	-9487
▁Stay	-9488
▁Subl	-9489
▁TRUE	-9490
▁Term	-9491
▁Tiny	-9492
▁Trip	-9493
▁USER	-9494
▁Wall	-9495
▁Will	-9496
▁Xfce	-9497
▁adds	-9498
▁aire	-9499
▁anch	-9500
▁bias	-9501
▁bind	-9502
▁bugs	-9503
▁bund	-9504
▁chat	-9505
▁city	-9506
▁desk	-9507
▁dirb	-9508
▁eyes	-9509
▁fobs	-9510
▁grab	-9511
▁icmp	-9512
▁idea	-9513
▁inad	-9514
▁land	-9515
▁lets	-9516
▁lost	-9517
▁mass	-9518
▁ones	-9519
▁pent	-9520
▁pert	-9521
▁pict	-9522
▁poor	-9523
▁pose	-9524
▁pros	-9525
▁rely	-9526
▁ring	-9527
▁roll	-9528
▁room	-9529
▁shut	-9530
▁soft	-9531
▁sole	-9532
▁soon	-9533
▁span	-9534
▁stay	-9535
▁swap	-9536
▁tabs	-9537
▁tail	-9538
▁tech	-9539
▁tend	-9540
▁thin	-9541
▁tied	-9542
▁tone	-9543
▁twin	-9544
▁vast	-9545
▁virt	-9546
▁walk	-9547
▁wave	-9548
▁wish	-9549
▁year	-9550
0.0/24	-9551
4:0000	-9552
:0021:	-9553
:10001	-9554
:68:16	-9555
BaseFX	-9556
GROUND	-9557
Google	-9558
Person	-9559
SCRIPT	-9560
WEBINT	-9561
abbing	-9562
aching	-9563
agging	-9564
alking	-9565
anying	-9566
aptive	-9567
arcity	-9568
arting	-9569
artite	-9570
atever	-9571
aviour	-9572
backed	-9573
bypass	-9574
ceeded	-9575
cident	-9576
coming	-9577
direct	-9578
earson	-9579
ercise	-9580
erning	-9581
erties	-9582
gather	-9583
hosted	-9584
imedia	-9585
ipping	-9586
letion	-9587
lished	-9588
looked	-9589
olitan	-9590
onread	-9591
oprint	-9592
ourage	-9593
packet	-9594
parate	-9595
person	-9596
photos	-9597
reedom	-9598
remote	-9599
retion	-9600
router	-9601
search	-9602
server	-9603
sesame	-9604
signed	-9605
struct	-9606
teness	-9607
tercap	-9608
tivist	-9609
ualize	-9610
verted	-9611
ximate	-9612
▁10101	-9613
▁2023)	-9614
▁31337	-9615
▁APIPA	-9616
▁Azure	-9617
▁Board	-9618
▁Brute	-9619
▁Cases	-9620
▁Chrom	-9621
▁Ciber	-9622
▁Codes	-9623
▁Craft	-9624
▁Depth	-9625
▁Dirty	-9626
▁Erase	-9627
▁Fibre	-9628
▁Final	-9629
▁Found	-9630
▁Fraud	-9631
▁Going	-9632
▁Guide	-9633
▁HIPAA	-9634
▁Halon	-9635
▁Helps	-9636
▁House	-9637
▁INDEX	-9638
▁IPSec	-9639
▁Journ	-9640
▁Large	-9641
▁Linus	-9642
▁MITRE	-9643
▁Makes	-9644
▁Mater	-9645
▁Matsu	-9646
▁Metro	-9647
▁Minor	-9648
▁Navig	-9649
▁Needs	-9650
▁OPSEC	-9651
▁Ratio	-9652
▁Regis	-9653
▁Reply	-9654
▁Route	-9655
▁Rules	-9656
▁SYSTE	-9657
▁Sales	-9658
▁Saves	-9659
▁Sheet	-9660
▁Smoke	-9661
▁Still	-9662
▁Super	-9663
▁Syria	-9664
▁THING	-9665
▁Thick	-9666
▁Think	-9667
▁Token	-9668
▁Total	-9669
▁Trend	-9670
▁Triad	-9671
▁Trunk	-9672
▁UNION	-9673
▁WHERE	-9674
▁WLANS	-9675
▁advoc	-9676
▁aimed	-9677
▁aisle	-9678
▁ascii	-9679
▁brand	-9680
▁brief	-9681
▁chunk	-9682
▁compl	-9683
▁creep	-9684
▁dates	-9685
▁deals	-9686
▁decoy	-9687
▁dilig	-9688
▁disgu	-9689
▁eight	-9690
▁evade	-9691
▁exams	-9692
▁exits	-9693
▁favor	-9694
▁feeds	-9695
▁fewer	-9696
▁forec	-9697
▁forum	-9698
▁games	-9699
▁glean	-9700
▁going	-9701
▁gover	-9702
▁guard	-9703
▁iBoot	-9704
▁innov	-9705
▁knows	-9706
▁leaks	-9707
▁loops	-9708
▁macro	-9709
▁micro	-9710
▁mixed	-9711
▁moral	-9712
▁moves	-9713
▁occup	-9714
▁offic	-9715
▁polit	-9716
▁revok	-9717
▁rigor	-9718
▁risky	-9719
▁sabot	-9720
▁saved	-9721
▁scale	-9722
▁scrap	-9723
▁seems	-9724
▁sense	-9725
▁sides	-9726
▁skill	-9727
▁sover	-9728
▁spans	-9729
▁stops	-9730
▁think	-9731
▁tiers	-9732
▁trade	-9733
▁traps	-9734
▁treat	-9735
▁tries	-9736
▁trigg	-9737
▁union	-9738
▁unreg	-9739
▁worry	-9740
▁zones	-9741
.31.218	-9742
EvilDTD	-9743
Explain	-9744
Hellman	-9745
Install	-9746
Routing	-9747
Unified	-9748
amilton	-9749
aversal	-9750
ception	-9751
certain	-9752
cribers	-9753
dynamic	-9754
echange	-9755
encoded	-9756
ensible	-9757
etermin	-9758
ielding	-9759
isement	-9760
itelist	-9761
ivalent	-9762
lectual	-9763
lements	-9764
letters	-9765
mediary	-9766
neutral	-9767
okmarks	-9768
onymous	-9769
patched	-9770
pecting	-9771
portion	-9772
predict	-9773
ralized	-9774
sniffer	-9775
stacles	-9776
texting	-9777
uishers	-9778
umption	-9779
ustotal	-9780
visions	-9781
▁64/128	-9782
▁Almost	-9783
▁Amplif	-9784
▁Assets	-9785
▁Beware	-9786
▁Cannot	-9787
▁Censys	-9788
▁Checks	-9789
▁Compet	-9790
▁Courts	-9791
▁Covers	-9792
▁Crimes	-9793
▁Demarc	-9794
▁Diffie	-9795
▁Double	-9796
▁Drives	-9797
▁Duplex	-9798
▁Emails	-9799
▁Energy	-9800
▁Erased	-9801
▁Expect	-9802
▁FUTURE	-9803
▁Forces	-9804
▁Future	-9805
▁GitHub	-9806
▁Hacker	-9807
▁Hidden	-9808
▁Highly	-9809
▁Humans	-9810
▁Indian	-9811
▁Inside	-9812
▁Intent	-9813
▁Intune	-9814
▁Keylog	-9815
▁Larger	-9816
▁Launch	-9817
▁Layout	-9818
▁Lookup	-9819
▁Making	-9820
▁Mining	-9821
▁Misuse	-9822
▁Others	-9823
▁PACKET	-9824
▁PRACTI	-9825
▁Phones	-9826
▁Piggyb	-9827
▁Poison	-9828
▁Prepar	-9829
▁Proper	-9830
▁Random	-9831
▁Rather	-9832
▁Reason	-9833
▁Sensor	-9834
▁Shaper	-9835
▁Shares	-9836
▁Simply	-9837
▁Sorted	-9838
▁Spread	-9839
▁Stakeh	-9840
▁Starts	-9841
▁Stored	-9842
▁String	-9843
▁Tables	-9844
▁Topics	-9845
▁Unique	-9846
▁UserId	-9847
▁Volume	-9848
▁Wiring	-9849
▁accred	-9850
▁acknow	-9851
▁admiss	-9852
▁aiming	-9853
▁assume	-9854
▁avoids	-9855
▁backed	-9856
▁basics	-9857
▁biases	-9858
▁boring	-9859
▁bottom	-9860
▁browse	-9861
▁button	-9862
▁claims	-9863
▁clears	-9864
▁clouds	-9865
▁collab	-9866
▁colons	-9867
▁consum	-9868
▁conven	-9869
▁covers	-9870
▁covert	-9871
▁datagr	-9872
▁denied	-9873
▁dozens	-9874
▁echoed	-9875
▁econom	-9876
▁emphas	-9877
▁ending	-9878
▁enrich	-9879
▁enters	-9880
▁exists	-9881
▁extern	-9882
▁exting	-9883
▁failed	-9884
▁figure	-9885
▁forged	-9886
▁gaming	-9887
▁ground	-9888
▁guests	-9889
▁harder	-9890
▁hashed	-9891
▁holder	-9892
▁injury	-9893
▁invest	-9894
▁layout	-9895
▁leases	-9896
▁linked	-9897
▁locate	-9898
▁middle	-9899
▁panels	-9900
▁pieces	-9901
▁plenum	-9902
▁poison	-9903
▁preset	-9904
▁python	-9905
▁region	-9906
▁reside	-9907
▁retake	-9908
▁routed	-9909
▁safely	-9910
▁saving	-9911
▁slower	-9912
▁spikes	-9913
▁stated	-9914
▁struct	-9915
▁subset	-9916
▁suffix	-9917
▁surges	-9918
▁ticket	-9919
▁timing	-9920
▁trendy	-9921
▁turned	-9922
▁unsafe	-9923
▁unused	-9924
▁usable	-9925
▁wasted	-9926
DHINAGAR	-9927
Firewall	-9928
Internet	-9929
Physical	-9930
Policies	-9931
Security	-9932
Stumbler	-9933
agements	-9934
agnostic	-9935
anguages	-9936
arrative	-9937
asticity	-9938
changing	-9939
encoding	-9940
endpoint	-9941
enuation	-9942
function	-9943
iliarity	-9944
ivilians	-9945
olitical	-9946
opefully	-9947
supplied	-9948
utfiesta	-9949
versible	-9950
whelming	-9951
wordlist	-9952
ximately	-9953
ypertext	-9954
▁Analyst	-9955
▁Antenna	-9956
▁Applied	-9957
▁Applies	-9958
▁Bridges	-9959
▁Categor	-9960
▁Certain	-9961
▁Chinese	-9962
▁Classes	-9963
▁Complex	-9964
▁Console	-9965
▁Consult	-9966
▁Context	-9967
▁Continu	-9968
▁Copying	-9969
▁Covered	-9970
▁Creates	-9971
▁Deliver	-9972
▁Details	-9973
▁Dropper	-9974
▁Evading	-9975
▁Execute	-9976
▁Fencing	-9977
▁Finally	-9978
▁Founder	-9979
▁Fraggle	-9980
▁Heating	-9981
▁Imagine	-9982
▁Instant	-9983
▁Invoice	-9984
▁KikChat	-9985
▁Limited	-9986
▁Mantrap	-9987
▁Medical	-9988
▁Michael	-9989
▁Mission	-9990
▁Myanmar	-9991
▁Numbers	-9992
▁Objects	-9993
▁Pearson	-9994
▁Perfect	-9995
▁Podcast	-9996
▁Priorit	-9997
▁Provide	-9998
▁Proxies	-9999
▁Roaming	-10000
▁Secrecy	-10001
▁Someone	-10002
▁Station	-10003
▁Sublist	-10004
▁Surface	-10005
▁Targets	-10006
▁Twitter	-10007
▁Urgency	-10008
▁Vendors	-10009
▁Version	-10010
▁Wayback	-10011
▁YouTube	-10012
▁adopted	-10013
▁aligned	-10014
▁arrives	-10015
▁attitud	-10016
▁banking	-10017
▁battery	-10018
▁billion	-10019
▁botnets	-10020
▁capable	-10021
▁closets	-10022
▁concern	-10023
▁confirm	-10024
▁consume	-10025
▁covered	-10026
▁damaged	-10027
▁defence	-10028
▁disable	-10029
▁distant	-10030
▁disturb	-10031
▁driving	-10032
▁employs	-10033
▁enabled	-10034
▁erasing	-10035
▁evasion	-10036
▁express	-10037
▁fashion	-10038
▁federal	-10039
▁finally	-10040
▁forcing	-10041
▁foreign	-10042
▁fulfill	-10043
▁gaining	-10044
▁generic	-10045
▁getting	-10046
▁greatly	-10047
▁handled	-10048
▁horizon	-10049
▁illegal	-10050
▁individ	-10051
▁informs	-10052
▁injects	-10053
▁inserts	-10054
▁keyword	-10055
▁legally	-10056
▁library	-10057
▁license	-10058
▁linking	-10059
▁listing	-10060
▁locally	-10061
▁longest	-10062
▁lookups	-10063
▁mapping	-10064
▁massive	-10065
▁nearest	-10066
▁netstat	-10067
▁neutral	-10068
▁offered	-10069
▁onboard	-10070
▁outline	-10071
▁overlap	-10072
▁perfect	-10073
▁posters	-10074
▁precise	-10075
▁proceed	-10076
▁profile	-10077
▁purging	-10078
▁reached	-10079
▁rejects	-10080
▁renewal	-10081
▁retains	-10082
▁rootkit	-10083
▁scaling	-10084
▁science	-10085
▁seconds	-10086
▁secrecy	-10087
▁signing	-10088
▁simplif	-10089
▁spyware	-10090
▁student	-10091
▁studies	-10092
▁suffers	-10093
▁travels	-10094
▁trojans	-10095
▁turning	-10096
▁undergo	-10097
▁urgency	-10098
▁whaling	-10099
:0000:001	-10100
Institute	-10101
TIONSTEPS	-10102
ationally	-10103
atization	-10104
broadcast	-10105
ditioning	-10106
endations	-10107
frequency	-10108
gathering	-10109
hematical	-10110
implement	-10111
lementing	-10112
novations	-10113
reachable	-10114
ropolitan	-10115
sensitive	-10116
ufacturer	-10117
wordlists	-10118
▁Adaptive	-10119
▁Analyzes	-10120
▁Approach	-10121
▁Articles	-10122
▁Attempts	-10123
▁Automate	-10124
▁Baseband	-10125
▁Building	-10126
▁Campaign	-10127
▁Classful	-10128
▁Classify	-10129
▁Combines	-10130
▁Consumer	-10131
▁Cracking	-10132
▁Customer	-10133
▁Economic	-10134
▁Elements	-10135
▁Encoding	-10136
▁Ettercap	-10137
▁Exercise	-10138
▁Exploits	-10139
▁Explorer	-10140
▁Exterior	-10141
▁Fileless	-10142
▁Fixation	-10143
▁Handling	-10144
▁Hierarch	-10145
▁Insiders	-10146
▁Interior	-10147
▁Kerberos	-10148
▁Managing	-10149
▁Mechanis	-10150
▁Messages	-10151
▁Moderate	-10152
▁Mounting	-10153
▁Navigate	-10154
▁Nixintel	-10155
▁Nslookup	-10156
▁Overview	-10157
▁Partners	-10158
▁Patching	-10159
▁Prevents	-10160
▁Printers	-10161
▁Properly	-10162
▁RESEARCH	-10163
▁Reducing	-10164
▁Remotely	-10165
▁Requests	-10166
▁Retrieve	-10167
▁Sampling	-10168
▁Scanners	-10169
▁Separate	-10170
▁Sessions	-10171
▁Spectrum	-10172
▁Splicing	-10173
▁Strength	-10174
▁SubSeven	-10175
▁Switched	-10176
▁Together	-10177
▁Unneeded	-10178
▁Unsecure	-10179
▁Visiting	-10180
▁abnormal	-10181
▁acquired	-10182
▁aireplay	-10183
▁airodump	-10184
▁anywhere	-10185
▁archives	-10186
▁assesses	-10187
▁attached	-10188
▁backhaul	-10189
▁balanced	-10190
▁becoming	-10191
▁boundary	-10192
▁bridging	-10193
▁browsers	-10194
▁captured	-10195
▁captures	-10196
▁citizens	-10197
▁classify	-10198
▁clearing	-10199
▁consumer	-10200
▁contrast	-10201
▁cordless	-10202
▁couplers	-10203
▁cracking	-10204
▁creative	-10205
▁credible	-10206
▁cultural	-10207
▁defenses	-10208
▁destroys	-10209
▁diagrams	-10210
▁discrete	-10211
▁domestic	-10212
▁duration	-10213
▁enhanced	-10214
▁enhances	-10215
▁ensuring	-10216
▁evolving	-10217
▁filetype	-10218
▁fraction	-10219
▁happened	-10220
▁honeypot	-10221
▁improper	-10222
▁inadvert	-10223
▁insiders	-10224
▁inspects	-10225
▁isolated	-10226
▁keyspace	-10227
▁military	-10228
▁notified	-10229
▁notifies	-10230
▁offering	-10231
▁official	-10232
▁organize	-10233
▁outcomes	-10234
▁outdated	-10235
▁overlaps	-10236
▁overview	-10237
▁portable	-10238
▁prepared	-10239
▁printers	-10240
▁printing	-10241
▁probable	-10242
▁probably	-10243
▁produces	-10244
▁quantity	-10245
▁randomly	-10246
▁regional	-10247
▁reliance	-10248
▁resident	-10249
▁residual	-10250
▁resolved	-10251
▁reversed	-10252
▁rigorous	-10253
▁routines	-10254
▁sabotage	-10255
▁simplest	-10256
▁spelling	-10257
▁sporadic	-10258
▁starting	-10259
▁supplies	-10260
▁touching	-10261
▁unwanted	-10262
▁utilized	-10263
▁weakness	-10264
▁whatever	-10265
▁whenever	-10266
▁wordlist	-10267
Disclosure	-10268
compliance	-10269
generation	-10270
photoprint	-10271
readyState	-10272
techniques	-10273
traceroute	-10274
▁172.16.64	-10275
▁Backdoors	-10276
▁Balancing	-10277
▁Biometric	-10278
▁BurpSuite	-10279
▁Classless	-10280
▁Combining	-10281
▁Container	-10282
▁Datagrams	-10283
▁Delimiter	-10284
▁Education	-10285
▁Encrypted	-10286
▁Ethertype	-10287
▁Evolution	-10288
▁Exercises	-10289
▁Fragments	-10290
▁Grounding	-10291
▁Indicator	-10292
▁Insurance	-10293
▁Lightning	-10294
▁Listening	-10295
▁Materials	-10296
▁Measuring	-10297
▁MetaOSINT	-10298
▁Microwave	-10299
▁Passwords	-10300
▁Playbooks	-10301
▁Principle	-10302
▁Providing	-10303
▁Reference	-10304
▁Scripting	-10305
▁Similarly	-10306
▁Snapshots	-10307
▁Tethering	-10308
▁Tolerable	-10309
▁Tolerance	-10310
▁Traversal	-10311
▁Typically	-10312
▁Unmanaged	-10313
▁Untrusted	-10314
▁Verifying	-10315
▁activated	-10316
▁aggregate	-10317
▁allocated	-10318
▁approvals	-10319
▁architect	-10320
▁assigning	-10321
▁associate	-10322
▁automates	-10323
▁avoidance	-10324
▁completed	-10325
▁conductor	-10326
▁correspon	-10327
▁corrupted	-10328
▁counterme	-10329
▁criminals	-10330
▁customize	-10331
▁digitally	-10332
▁disparate	-10333
▁divisions	-10334
▁education	-10335
▁exhausted	-10336
▁extension	-10337
▁extensive	-10338
▁footprint	-10339
▁governing	-10340
▁impedance	-10341
▁increased	-10342
▁infecting	-10343
▁inquiries	-10344
▁insurance	-10345
▁interests	-10346
▁jailbreak	-10347
▁libraries	-10348
▁logically	-10349
▁medianets	-10350
▁modifying	-10351
▁namespace	-10352
▁oversight	-10353
▁partially	-10354
▁principle	-10355
▁producing	-10356
▁proximity	-10357
▁recommend	-10358
▁reprogram	-10359
▁sandboxes	-10360
▁selection	-10361
▁specifies	-10362
▁stateless	-10363
▁submitted	-10364
▁transfers	-10365
▁translate	-10366
▁traveling	-10367
▁tunneling	-10368
▁unmanaged	-10369
▁unrelated	-10370
▁virtually	-10371
▁visualize	-10372
▁webserver	-10373
▁witnesses	-10374
Regulations	-10375
onreadystat	-10376
▁192.168.1.	-10377
▁Agreements	-10378
▁Allocation	-10379
▁Authorized	-10380
▁BACKGROUND	-10381
▁Background	-10382
▁Baselining	-10383
▁Capability	-10384
▁Checklists	-10385
▁Consortium	-10386
▁Experience	-10387
▁Explaining	-10388
▁Exploiting	-10389
▁Extensible	-10390
▁Geofencing	-10391
▁Geographic	-10392
▁Hypervisor	-10393
▁Identifies	-10394
▁Increasing	-10395
▁Installing	-10396
▁Linguistic	-10397
▁Middleware	-10398
▁Multilayer	-10399
▁Multipoint	-10400
▁Playground	-10401
▁Pretexting	-10402
▁Preventing	-10403
▁Principles	-10404
▁Responders	-10405
▁Separating	-10406
▁Separation	-10407
▁Subscriber	-10408
▁Throughput	-10409
▁Volumetric	-10410
▁Vulnerable	-10411
▁accounting	-10412
▁allocation	-10413
▁attachment	-10414
▁behavioral	-10415
▁calculated	-10416
▁categorize	-10417
▁checklists	-10418
▁collisions	-10419
▁compressed	-10420
▁concerning	-10421
▁contribute	-10422
▁converting	-10423
▁dashboards	-10424
▁decrypting	-10425
▁demultiple	-10426
▁designator	-10427
▁discussion	-10428
▁distortion	-10429
▁eliminates	-10430
▁evaluation	-10431
▁eventually	-10432
▁exceptions	-10433
▁expression	-10434
▁externally	-10435
▁filesystem	-10436
▁formatting	-10437
▁fraudulent	-10438
▁hacktivist	-10439
▁incomplete	-10440
▁indication	-10441
▁infections	-10442
▁integrates	-10443
▁methodical	-10444
▁mitigating	-10445
▁navigation	-10446
▁organizing	-10447
▁overlooked	-10448
▁partitions	-10449
▁peripheral	-10450
▁predefined	-10451
▁programmed	-10452
▁publishing	-10453
▁references	-10454
▁regardless	-10455
▁safeguards	-10456
▁separation	-10457
▁sprinklers	-10458
▁streamline	-10459
▁submitting	-10460
▁successful	-10461
▁thoroughly	-10462
▁topologies	-10463
▁triggering	-10464
▁unattended	-10465
▁unstrusted	-10466
Intermediate	-10467
erialization	-10468
intelligence	-10469
responseText	-10470
specialchars	-10471
sshPublicKey	-10472
userpassword	-10473
▁111.111.111	-10474
▁169.254.0.1	-10475
▁192.168.1.1	-10476
▁Alternative	-10477
▁Attestation	-10478
▁Bluebugging	-10479
▁Bottlenecks	-10480
▁Collections	-10481
▁Compression	-10482
▁Controllers	-10483
▁Distinguish	-10484
▁Electronics	-10485
▁Enumerating	-10486
▁Enumeration	-10487
▁Environment	-10488
▁Eradication	-10489
▁GANDHINAGAR	-10490
▁NetStumbler	-10491
▁Polymorphic	-10492
▁Portability	-10493
▁Positioning	-10494
▁Promiscuous	-10495
▁Proprietary	-10496
▁Qualitative	-10497
▁Registering	-10498
▁Remediation	-10499
▁Replacement	-10500
▁Scalability	-10501
▁Segregation	-10502
▁Stakeholder	-10503
▁Statistical	-10504
▁Supervisory	-10505
▁Suppression	-10506
▁Ventilation	-10507
▁authorities	-10508
▁considering	-10509
▁consistency	-10510
▁contractors	-10511
▁contributes	-10512
▁controllers	-10513
▁controlling	-10514
▁coordinates	-10515
▁degradation	-10516
▁demarcation	-10517
▁distinguish	-10518
▁educational	-10519
▁encompasses	-10520
▁enhancement	-10521
▁expressions	-10522
▁forecasting	-10523
▁functioning	-10524
▁hexadecimal	-10525
▁incorrectly	-10526
▁integration	-10527
▁intentional	-10528
▁legislative	-10529
▁manipulated	-10530
▁necessarily	-10531
▁objectClass	-10532
▁overwriting	-10533
▁penetrating	-10534
▁persistence	-10535
▁preferences	-10536
▁prioritizes	-10537
▁restricting	-10538
▁scalability	-10539
▁screenshots	-10540
▁sovereignty	-10541
▁subscribers	-10542
▁surrounding	-10543
▁transparent	-10544
▁transported	-10545
▁ventilation	-10546
homedirectory	-10547
▁217.45.253.5	-10548
▁Conditioning	-10549
▁Connectivity	-10550
▁Establishing	-10551
▁Hierarchical	-10552
▁Identifiable	-10553
▁Piggybacking	-10554
▁Programmable	-10555
▁Registration	-10556
▁Transference	-10557
▁Transmission	-10558
▁accomplished	-10559
▁circumstance	-10560
▁complexities	-10561
▁encapsulated	-10562
▁fingerprints	-10563
▁guaranteeing	-10564
▁hackthissite	-10565
▁incompatible	-10566
▁individually	-10567
▁interactions	-10568
▁intercepting	-10569
▁interception	-10570
▁interconnect	-10571
▁intervention	-10572
▁manufacturer	-10573
▁mathematical	-10574
▁safeguarding	-10575
▁standardized	-10576
▁subscription	-10577
▁substitution	-10578
▁transferring	-10579
▁transmitters	-10580
▁workstations	-10581
▁Amplification	-10582
▁Authenticated	-10583
▁Dissemination	-10584
▁Investigative	-10585
▁Investigators	-10586
▁Orchestration	-10587
▁advertisement	-10588
▁extinguishers	-10589
▁impersonating	-10590
▁impersonation	-10591
▁jurisdictions	-10592
▁normalization	-10593
▁specification	-10594
▁traditionally	-10595
▁unintentional	-10596
4:0000:0000:001	-10597
withCredentials	-10598
▁137.74.187.100	-10599
▁192.168.31.218	-10600
▁Disinformation	-10601
▁Reconnaissance	-10602
▁Transportation	-10603
▁characteristic	-10604
▁countermeasure	-10605
▁cybercriminals	-10606
▁fingerprinting	-10607
▁interpretation	-10608
▁specifications	-10609
▁Electromagnetic	-10610
▁Omnidirectional	-10611
▁Recommendations	-10612
▁representatives	-10613
▁standardization	-10614
!7	-10615
#2	-10616
#3	-10617
#4	-10618
%)	-10619
%8	-10620
)"	-10621
,"	-10622
0"	-10623
17	-10624
2%	-10625
20	-10626
21	-10627
27	-10628
38	-10629
6"	-10630
6.	-10631
6/	-10632
63	-10633
6?	-10634
90	-10635
95	-10636
96	-10637
97	-10638
="	-10639
=)	-10640
=3	-10641
=6	-10642
=8	-10643
AV	-10644
AW	-10645
AY	-10646
Ar	-10647
BC	-10648
BE	-10649
BH	-10650
BS	-10651
Be	-10652
CK	-10653
CL	-10654
CM	-10655
CN	-10656
CO	-10657
DD	-10658
Db	-10659
EH	-10660
EV	-10661
Em	-10662
FE	-10663
FO	-10664
Fc	-10665
GA	-10666
IU	-10667
Io	-10668
LY	-10669
MD	-10670
NB	-10671
NU	-10672
No	-10673
OG	-10674
OT	-10675
OW	-10676
Pl	-10677
RB	-10678
Ra	-10679
SK	-10680
Ss	-10681
TO	-10682
Up	-10683
Ut	-10684
VM	-10685
XT	-10686
]]	-10687
_]	-10688
ai	-10689
bd	-10690
bn	-10691
cm	-10692
ev	-10693
ez	-10694
fr	-10695
gE	-10696
gt	-10697
jo	-10698
ka	-10699
0.	-10700
kg	-10701
mo	-10702
mt	-10703
nd	-10704
oF	-10705
oh	-10706
oo	-10707
pm	-10708
rb	-10709
rs	-10710
rw	-10711
sS	-10712
si	-10713
sp	-10714
sr	-10715
uz	-10716
va	-10717
wt	-10718
”:	-10719
-58	-10720
-87	-10721
-8:	-10722
.52	-10723
018	-10724
01:	-10725
1/0	-10726
103	-10727
108	-10728
192	-10729
300	-10730
361	-10731
434	-10732
500	-10733
544	-10734
789	-10735
:11	-10736
:1;	-10737
ACE	-10738
ADD	-10739
Air	-10740
BAS	-10741
BCP	-10742
CEH	-10743
CRA	-10744
CSR	-10745
Def	-10746
Den	-10747
EAP	-10748
ETF	-10749
End	-10750
FAL	-10751
Fin	-10752
Fir	-10753
GPS	-10754
Has	-10755
Hoc	-10756
IMM	-10757
INK	-10758
INS	-10759
IRP	-10760
IRT	-10761
ISH	-10762
ISM	-10763
KEN	-10764
LIP	-10765
Len	-10766
MPS	-10767
Met	-10768
Mon	-10769
MyS	-10770
NSI	-10771
Num	-10772
OFF	-10773
OSL	-10774
OUI	-10775
Out	-10776
PAI	-10777
PEN	-10778
PIP	-10779
RCS	-10780
ROP	-10781
RTs	-10782
SDN	-10783
SIM	-10784
Str	-10785
ToS	-10786
Top	-10787
UES	-10788
VTC	-10789
WAF	-10790
Web	-10791
YPT	-10792
aas	-10793
abf	-10794
abr	-10795
ada	-10796
ady	-10797
aga	-10798
ait	-10799
"),	-10800
1].	-10801
AML	-10802
ANT	-10803
Bps	-10804
EMM	-10805
IES	-10806
Inv	-10807
MLS	-10808
Map	-10809
SSO	-10810
You	-10811
ano	-10812
asp	-10813
ats	-10814
bot	-10815
bow	-10816
but	-10817
cbb	-10818
cek	-10819
cor	-10820
cow	-10821
cut	-10822
dab	-10823
dap	-10824
dec	-10825
dem	-10826
det	-10827
dff	-10828
eal	-10829
eel	-10830
ena	-10831
epp	-10832
erd	-10833
erl	-10834
esg	-10835
hex	-10836
icy	-10837
iex	-10838
ini	-10839
inn	-10840
inv	-10841
ipp	-10842
isy	-10843
ixt	-10844
jon	-10845
kly	-10846
lie	-10847
loc	-10848
lom	-10849
may	-10850
met	-10851
mor	-10852
mtu	-10853
noc	-10854
non	-10855
oCs	-10856
off	-10857
ogs	-10858
olt	-10859
oly	-10860
ony	-10861
ood	-10862
pci	-10863
pdf	-10864
qli	-10865
rot	-10866
run	-10867
sam	-10868
see	-10869
she	-10870
som	-10871
spe	-10872
sub	-10873
tho	-10874
tia	-10875
tic	-10876
tly	-10877
ued	-10878
uel	-10879
uli	-10880
uly	-10881
upd	-10882
upy	-10883
usb	-10884
uum	-10885
uzz	-10886
wan	-10887
win	-10888
▁!-	-10889
▁(5	-10890
▁(7	-10891
▁-)	-10892
▁0-	-10893
▁07	-10894
▁08	-10895
▁1'	-10896
▁2)	-10897
▁35	-10898
▁36	-10899
ACH	-10900
ERM	-10901
ERS	-10902
Eth	-10903
IDD	-10904
LBA	-10905
MIT	-10906
PoE	-10907
TER	-10908
UDP	-10909
due	-10910
trl	-10911
uby	-10912
uck	-10913
▁#7	-10914
▁33	-10915
▁3;	-10916
▁43	-10917
▁56	-10918
▁6:	-10919
▁7)	-10920
▁7-	-10921
▁75	-10922
▁AG	-10923
▁AR	-10924
▁DS	-10925
▁EC	-10926
▁EP	-10927
▁FC	-10928
▁FF	-10929
▁FI	-10930
▁Fa	-10931
▁GG	-10932
▁GH	-10933
▁Gb	-10934
▁Gh	-10935
▁HU	-10936
▁Ho	-10937
▁II	-10938
▁LA	-10939
▁LC	-10940
▁LO	-10941
▁ME	-10942
▁NN	-10943
▁OH	-10944
▁Oe	-10945
▁RU	-10946
▁Ra	-10947
▁Ts	-10948
▁UI	-10949
▁Uk	-10950
▁VS	-10951
▁Ye	-10952
▁ap	-10953
▁cd	-10954
▁ce	-10955
▁dm	-10956
▁dw	-10957
▁ep	-10958
▁km	-10959
▁nb	-10960
▁ov	-10961
▁ra	-10962
▁sl	-10963
▁tL	-10964
▁yc	-10965
▁yw	-10966
▁yz	-10967
▁“3	-10968
-45,	-10969
.128	-10970
.83.	-10971
.86%	-10972
0103	-10973
33.6	-10974
AAAA	-10975
AKNE	-10976
BINT	-10977
Baat	-10978
ById	-10979
CAPE	-10980
CATV	-10981
CCMP	-10982
CRIM	-10983
Cons	-10984
DPDP	-10985
Data	-10986
Date	-10987
HIPS	-10988
Host	-10989
ICAL	-10990
IEOS	-10991
IGRP	-10992
IIoT	-10993
INTE	-10994
ISAC	-10995
ISOR	-10996
Less	-10997
Mult	-10998
NIPS	-10999
-10	-11000
232	-11001
9%)	-11002
AWG	-11003
DSS	-11004
LTE	-11005
Leg	-11006
QUI	-11007
RIB	-11008
TCP	-11009
tee	-11010
▁41	-11011
/232	-11012
DHCP	-11013
ORIG	-11014
Only	-11015
PDUs	-11016
PIPL	-11017
Pers	-11018
QUIR	-11019
Risk	-11020
SNMP	-11021
Side	-11022
Spec	-11023
Summ	-11024
TEMP	-11025
TRIB	-11026
_|_|	-11027
abay	-11028
abin	-11029
aday	-11030
addr	-11031
aidu	-11032
anes	-11033
anet	-11034
anic	-11035
apan	-11036
area	-11037
arse	-11038
arts	-11039
asst	-11040
avid	-11041
awan	-11042
balt	-11043
best	-11044
bind	-11045
bose	-11046
bots	-11047
camp	-11048
care	-11049
case	-11050
clgE	-11051
cron	-11052
done	-11053
eary	-11054
edce	-11055
eded	-11056
eive	-11057
elve	-11058
enda	-11059
eral	-11060
ered	-11061
erke	-11062
eros	-11063
erva	-11064
esar	-11065
etry	-11066
gall	-11067
gaus	-11068
gers	-11069
hard	-11070
hern	-11071
iant	-11072
icmp	-11073
icts	-11074
ided	-11075
idow	-11076
igns	-11077
ikto	-11078
itle	-11079
iums	-11080
kers	-11081
libr	-11082
llyp	-11083
mess	-11084
oder	-11085
oret	-11086
ouch	-11087
owel	-11088
pick	-11089
pout	-11090
race	-11091
rain	-11092
rand	-11093
rate	-11094
rece	-11095
reen	-11096
rror	-11097
shot	-11098
sign	-11099
.0,	-11100
307	-11101
APs	-11102
FIC	-11103
HSS	-11104
Log	-11105
VPN	-11106
XSS	-11107
bek	-11108
deb	-11109
nob	-11110
oku	-11111
”).	-11112
▁..	-11113
▁0)	-11114
▁81	-11115
10/1	-11116
:13:	-11117
Comp	-11118
Priv	-11119
alty	-11120
fish	-11121
getE	-11122
obot	-11123
step	-11124
tech	-11125
tein	-11126
thly	-11127
tone	-11128
uder	-11129
utip	-11130
wall	-11131
when	-11132
wide	-11133
ying	-11134
zano	-11135
▁(76	-11136
▁0.0	-11137
▁105	-11138
▁120	-11139
▁160	-11140
▁3-2	-11141
▁4.2	-11142
▁4.3	-11143
▁5.1	-11144
▁5.4	-11145
▁65,	-11146
▁ADV	-11147
▁AIX	-11148
▁ATT	-11149
▁Ack	-11150
▁Aff	-11151
▁Ais	-11152
▁Ann	-11153
▁Baz	-11154
▁Bey	-11155
▁CBC	-11156
▁CEL	-11157
▁CMS	-11158
▁CNS	-11159
▁Cit	-11160
▁Cur	-11161
▁DOS	-11162
▁Day	-11163
▁Dot	-11164
▁ESL	-11165
▁Eco	-11166
▁Emp	-11167
▁Equ	-11168
▁FAT	-11169
▁FIN	-11170
▁FRA	-11171
▁Fam	-11172
▁Fer	-11173
▁Fog	-11174
▁Gal	-11175
▁Gen	-11176
▁IDA	-11177
▁IMP	-11178
▁Ide	-11179
▁Ion	-11180
▁Isl	-11181
▁LET	-11182
▁LFI	-11183
▁MDF	-11184
▁MMS	-11185
▁Mos	-11186
▁Mrs	-11187
▁OSX	-11188
▁OUT	-11189
▁Oce	-11190
▁PSK	-11191
▁PTR	-11192
▁Pop	-11193
▁Pul	-11194
▁RAS	-11195
▁RIP	-11196
▁RTM	-11197
▁Rel	-11198
▁Rot	-11199
!..	-11200
!7(	-11201
-12	-11202
EEA	-11203
IEB	-11204
ISE	-11205
THS	-11206
▁&&	-11207
▁60	-11208
▁="	-11209
▁Ya	-11210
-202	-11211
Bits	-11212
DMIN	-11213
FIRM	-11214
Hash	-11215
IEBo	-11216
Root	-11217
bits	-11218
buil	-11219
size	-11220
▁(48	-11221
▁123	-11222
▁5.2	-11223
▁SIP	-11224
▁SOA	-11225
▁SOP	-11226
▁STP	-11227
▁Sch	-11228
▁Sil	-11229
▁Squ	-11230
▁Sud	-11231
▁TRA	-11232
▁Too	-11233
▁URI	-11234
▁Vir	-11235
▁WDM	-11236
▁Was	-11237
▁Wif	-11238
▁XOR	-11239
▁ame	-11240
▁big	-11241
▁bob	-11242
▁cas	-11243
▁che	-11244
▁cle	-11245
▁fly	-11246
▁her	-11247
▁htt	-11248
▁hyp	-11249
▁ill	-11250
▁ink	-11251
▁jar	-11252
▁lib	-11253
▁loy	-11254
▁mas	-11255
▁mid	-11256
▁mob	-11257
▁nsa	-11258
▁org	-11259
▁ple	-11260
▁rot	-11261
▁san	-11262
▁sli	-11263
▁ton	-11264
▁ult	-11265
▁unn	-11266
▁vim	-11267
▁wal	-11268
▁xxe	-11269
▁yet	-11270
-2013	-11271
.27%)	-11272
/0!7(	-11273
19265	-11274
30723	-11275
:200|	-11276
AIDAN	-11277
CRAFT	-11278
Cable	-11279
DPass	-11280
Enhan	-11281
Ether	-11282
Event	-11283
FORCE	-11284
GMENT	-11285
Gener	-11286
Group	-11287
HIPAA	-11288
HTTPS	-11289
ISTOS	-11290
LIENT	-11291
Legal	-11292
OFFER	-11293
RAMES	-11294
SECUR	-11295
Techn	-11296
Thick	-11297
ToSam	-11298
USTOM	-11299
50.	-11300
ARK	-11301
▁#5	-11302
▁#6	-11303
▁JR	-11304
:1;)	-11305
EDIN	-11306
Fair	-11307
PLIC	-11308
SSES	-11309
airs	-11310
coms	-11311
haps	-11312
wned	-11313
▁700	-11314
▁IND	-11315
▁Sql	-11316
▁bio	-11317
▁six	-11318
SWILL	-11319
Where	-11320
agoof	-11321
ainst	-11322
aiwan	-11323
ajong	-11324
alone	-11325
amond	-11326
andby	-11327
antic	-11328
arial	-11329
asive	-11330
assis	-11331
astic	-11332
atuit	-11333
bable	-11334
berry	-11335
chain	-11336
clean	-11337
crime	-11338
denly	-11339
divid	-11340
ecast	-11341
ecute	-11342
email	-11343
emost	-11344
enant	-11345
esses	-11346
ested	-11347
estib	-11348
etite	-11349
exist	-11350
haust	-11351
ibern	-11352
iddie	-11353
ifice	-11354
iform	-11355
ilege	-11356
index	-11357
ingly	-11358
inion	-11359
inite	-11360
inity	-11361
innet	-11362
ipper	-11363
jectC	-11364
legos	-11365
limit	-11366
locks	-11367
media	-11368
names	-11369
noise	-11370
okies	-11371
olute	-11372
olved	-11373
orate	-11374
oting	-11375
ourse	-11376
owels	-11377
ploys	-11378
rence	-11379
rench	-11380
rengt	-11381
rones	-11382
ruary	-11383
sense	-11384
sight	-11385
stant	-11386
trans	-11387
traps	-11388
uling	-11389
usive	-11390
uting	-11391
value	-11392
versa	-11393
vides	-11394
▁(../	-11395
▁----	-11396
▁1200	-11397
▁1370	-11398
▁1518	-11399
-1,	-11400
-15	-11401
-44	-11402
768	-11403
92)	-11404
CQV	-11405
XEE	-11406
.1.3	-11407
:48:	-11408
Cond	-11409
UEFI	-11410
ship	-11411
▁190	-11412
▁IAM	-11413
▁ICV	-11414
▁Old	-11415
▁PIT	-11416
▁obs	-11417
ALING	-11418
Cross	-11419
SSING	-11420
VWCQV	-11421
alted	-11422
ondis	-11423
world	-11424
▁1920	-11425
▁1980	-11426
▁2000	-11427
▁2016	-11428
▁2024	-11429
▁3389	-11430
▁ANal	-11431
▁Abel	-11432
▁Anth	-11433
▁Auto	-11434
▁BPDU	-11435
▁Beam	-11436
▁Been	-11437
▁Bing	-11438
▁CELL	-11439
▁CHEC	-11440
▁Cain	-11441
▁Care	-11442
▁Coup	-11443
▁DARK	-11444
▁Days	-11445
▁Dell	-11446
▁Demo	-11447
▁Deve	-11448
▁Dual	-11449
▁ENCR	-11450
▁Earn	-11451
▁Fact	-11452
▁Five	-11453
▁Form	-11454
▁Free	-11455
▁GIMP	-11456
▁HACK	-11457
▁Heur	-11458
▁Hole	-11459
▁Hunt	-11460
▁Into	-11461
▁Juli	-11462
▁Kill	-11463
▁Lawy	-11464
▁Ldap	-11465
▁Love	-11466
▁MUST	-11467
▁Mart	-11468
▁Mill	-11469
▁Node	-11470
▁OSRF	-11471
▁PADD	-11472
▁PROS	-11473
▁PadB	-11474
▁Pick	-11475
▁Pure	-11476
▁Rain	-11477
▁Rele	-11478
▁Roll	-11479
▁Rund	-11480
▁SAML	-11481
▁SANs	-11482
▁SDSL	-11483
▁SPAN	-11484
▁STEP	-11485
▁Saga	-11486
▁Sant	-11487
▁Save	-11488
▁Sche	-11489
▁Sent	-11490
▁Shop	-11491
▁Span	-11492
▁Stre	-11493
▁Swap	-11494
▁TJON	-11495
▁Tail	-11496
▁Trap	-11497
▁Unsh	-11498
▁Ways	-11499
99.	-11500
=23	-11501
BPA	-11502
PEM	-11503
PUP	-11504
REC	-11505
.000	-11506
02.3	-11507
=23,	-11508
Intr	-11509
LOOK	-11510
zell	-11511
▁12,	-11512
▁3.4	-11513
▁Cyb	-11514
▁ISM	-11515
▁USA	-11516
7:01:	-11517
BLOGS	-11518
Sense	-11519
cache	-11520
ibels	-11521
idNum	-11522
roken	-11523
valds	-11524
▁Kwin	-11525
▁SNAT	-11526
▁Wget	-11527
▁Worm	-11528
▁XSSV	-11529
▁Yout	-11530
▁___)	-11531
▁___?	-11532
▁____	-11533
▁___|	-11534
▁acts	-11535
▁actu	-11536
▁airw	-11537
▁asks	-11538
▁avat	-11539
▁bent	-11540
▁bios	-11541
▁brut	-11542
▁burn	-11543
▁caut	-11544
▁cell	-11545
▁cogn	-11546
▁cold	-11547
▁conf	-11548
▁conj	-11549
▁dash	-11550
▁dead	-11551
▁deep	-11552
▁dish	-11553
▁dust	-11554
▁elev	-11555
▁emer	-11556
▁ever	-11557
▁fals	-11558
▁fans	-11559
▁feel	-11560
▁fool	-11561
▁fund	-11562
▁geop	-11563
▁glob	-11564
▁gold	-11565
▁gray	-11566
▁grow	-11567
▁hamp	-11568
▁hops	-11569
▁hous	-11570
▁impr	-11571
▁item	-11572
▁kind	-11573
▁laun	-11574
▁live	-11575
▁logo	-11576
▁lots	-11577
▁mand	-11578
▁mist	-11579
▁note	-11580
▁obsc	-11581
▁phot	-11582
▁play	-11583
▁plus	-11584
▁push	-11585
▁rare	-11586
▁rich	-11587
▁ruby	-11588
▁seek	-11589
▁sell	-11590
▁shel	-11591
▁shif	-11592
▁sink	-11593
▁soci	-11594
▁sort	-11595
▁sour	-11596
▁spaw	-11597
▁symb	-11598
▁tall	-11599
-23	-11600
035	-11601
COO	-11602
DLL	-11603
LFI	-11604
OOF	-11605
OOT	-11606
REG	-11607
▁\/	-11608
COOP	-11609
Comm	-11610
JONG	-11611
TIME	-11612
Thin	-11613
bris	-11614
pcap	-11615
▁BRE	-11616
▁ETH	-11617
▁FIR	-11618
▁Zit	-11619
AJONG	-11620
CROOT	-11621
Noise	-11622
REGUL	-11623
Value	-11624
anied	-11625
brute	-11626
hosts	-11627
inued	-11628
▁ANSI	-11629
▁CPEs	-11630
▁GDPR	-11631
▁Poor	-11632
▁SYSL	-11633
▁THRE	-11634
▁URLs	-11635
▁cuts	-11636
▁furn	-11637
▁tips	-11638
▁took	-11639
▁unit	-11640
▁vacs	-11641
▁vert	-11642
▁vess	-11643
▁vice	-11644
▁wear	-11645
▁worm	-11646
.8.8.8	-11647
Analog	-11648
Change	-11649
Common	-11650
ENGTHS	-11651
ERFORM	-11652
Engine	-11653
GBaseS	-11654
ISHANT	-11655
Method	-11656
Middle	-11657
Mobile	-11658
OOBEnt	-11659
Object	-11660
Output	-11661
Pasted	-11662
Please	-11663
Safety	-11664
Search	-11665
Should	-11666
abayin	-11667
adbolt	-11668
aition	-11669
ameter	-11670
amount	-11671
ancing	-11672
arbled	-11673
astion	-11674
aticin	-11675
berate	-11676
clgEom	-11677
covers	-11678
cribed	-11679
cronis	-11680
demand	-11681
eaters	-11682
ectral	-11683
ensing	-11684
ervers	-11685
ferred	-11686
fforts	-11687
hacker	-11688
herent	-11689
herits	-11690
ighbor	-11691
iliate	-11692
impers	-11693
incing	-11694
inline	-11695
ipedia	-11696
ippers	-11697
irrors	-11698
isible	-11699
-32	-11700
885	-11701
DNI	-11702
MSA	-11703
NMS	-11704
OrR	-11705
gov	-11706
2%80	-11707
LIST	-11708
anna	-11709
bian	-11710
body	-11711
enna	-11712
proc	-11713
▁25.	-11714
▁Few	-11715
▁STR	-11716
2%80%	-11717
57885	-11718
Paced	-11719
Users	-11720
Water	-11721
adian	-11722
inars	-11723
ought	-11724
ropic	-11725
▁Bank	-11726
▁ODNI	-11727
▁Omni	-11728
▁Pawn	-11729
▁Talk	-11730
▁Walk	-11731
▁baud	-11732
DSCAPE	-11733
Global	-11734
leased	-11735
loader	-11736
marine	-11737
mitted	-11738
mostly	-11739
nobody	-11740
nocent	-11741
olarly	-11742
olicit	-11743
omatic	-11744
openow	-11745
origin	-11746
orneys	-11747
output	-11748
papers	-11749
points	-11750
prefix	-11751
prises	-11752
profit	-11753
quires	-11754
rosion	-11755
rought	-11756
rrorRe	-11757
shared	-11758
sinthe	-11759
stable	-11760
switch	-11761
target	-11762
tenant	-11763
though	-11764
uating	-11765
ulator	-11766
urable	-11767
usions	-11768
usters	-11769
valent	-11770
vanced	-11771
weight	-11772
▁(12.6	-11773
▁1.544	-11774
▁11000	-11775
▁172.1	-11776
▁2.2.2	-11777
▁3-2-1	-11778
▁800-8	-11779
▁ANOTH	-11780
▁Admin	-11781
▁Along	-11782
▁Array	-11783
▁Berke	-11784
▁Build	-11785
▁Camer	-11786
▁Cards	-11787
▁Catch	-11788
▁Cause	-11789
▁Close	-11790
▁Coded	-11791
▁Const	-11792
▁Costs	-11793
▁Crack	-11794
▁DSLAM	-11795
▁Droid	-11796
▁ESSID	-11797
▁EXIST	-11798
▁FRAME	-11799
);'	-11800
-48	-11801
0-5	-11802
BIA	-11803
Crow	-11804
IETF	-11805
▁SPB	-11806
▁SPF	-11807
▁XXX	-11808
▁xxx	-11809
▁zip	-11810
0-501	-11811
Crowd	-11812
Wired	-11813
amera	-11814
arrow	-11815
files	-11816
holes	-11817
▁CPUs	-11818
▁blue	-11819
▁dips	-11820
ardrop	-11821
ituent	-11822
optics	-11823
▁17024	-11824
▁Bytes	-11825
▁Firew	-11826
▁Forms	-11827
▁Fully	-11828
▁Gates	-11829
▁Geary	-11830
▁Ghost	-11831
▁Given	-11832
▁Goals	-11833
▁Guard	-11834
▁Hides	-11835
▁Horse	-11836
▁Htein	-11837
▁INDIA	-11838
▁Initi	-11839
▁Japan	-11840
▁Jrist	-11841
▁Known	-11842
▁LWAPP	-11843
▁Legis	-11844
▁Lever	-11845
▁Match	-11846
▁Mount	-11847
▁NetCr	-11848
▁Noise	-11849
▁Offer	-11850
▁Orbit	-11851
▁Outer	-11852
▁PARAM	-11853
▁Paste	-11854
▁Plugg	-11855
▁Pseud	-11856
▁RETUR	-11857
▁Recap	-11858
▁SIEMs	-11859
▁Scams	-11860
▁Scans	-11861
▁Scene	-11862
▁Sched	-11863
▁Score	-11864
▁Secur	-11865
▁Serve	-11866
▁Share	-11867
▁Shift	-11868
▁Shred	-11869
▁Sites	-11870
▁Sniff	-11871
▁Solit	-11872
▁Sover	-11873
▁Spear	-11874
▁Spoof	-11875
▁Staff	-11876
▁Swipe	-11877
▁TABLE	-11878
▁THEFT	-11879
▁Teams	-11880
▁Trace	-11881
▁Train	-11882
▁Treat	-11883
▁Ultra	-11884
▁Uname	-11885
▁WHOIS	-11886
▁Whats	-11887
▁XXEME	-11888
▁ZitMo	-11889
▁abide	-11890
▁abstr	-11891
▁abuse	-11892
▁aeros	-11893
▁alone	-11894
▁amend	-11895
▁antic	-11896
▁batch	-11897
▁began	-11898
▁begin	-11899
#53	-11900
785	-11901
EPP	-11902
PHP	-11903
SFP	-11904
WRT	-11905
.224	-11906
?*1.	-11907
MSDS	-11908
UTOM	-11909
UTOR	-11910
http	-11911
noiv	-11912
opsy	-11913
▁195	-11914
▁77,	-11915
▁BRI	-11916
▁NEW	-11917
▁NLP	-11918
▁Pdf	-11919
▁ohm	-11920
▁pdf	-11921
0-601	-11922
agram	-11923
unker	-11924
veyor	-11925
wares	-11926
▁ACLs	-11927
▁CIRT	-11928
▁CONN	-11929
▁Half	-11930
▁half	-11931
▁hook	-11932
▁pipe	-11933
Hidden	-11934
Static	-11935
cpdump	-11936
recomm	-11937
ursors	-11938
▁AUTOM	-11939
▁Delay	-11940
▁PROOF	-11941
▁bogus	-11942
▁boots	-11943
▁brown	-11944
▁bunch	-11945
▁cages	-11946
▁chops	-11947
▁chron	-11948
▁clone	-11949
▁colon	-11950
▁cores	-11951
▁disks	-11952
▁distr	-11953
▁enact	-11954
▁erase	-11955
▁feder	-11956
▁fines	-11957
▁flows	-11958
▁front	-11959
▁goods	-11960
▁grade	-11961
▁heavy	-11962
▁highl	-11963
▁holds	-11964
▁house	-11965
▁ideas	-11966
▁imply	-11967
▁indef	-11968
▁intel	-11969
▁juice	-11970
▁keyst	-11971
▁kinds	-11972
▁lease	-11973
▁liter	-11974
▁litig	-11975
▁meets	-11976
▁merit	-11977
▁modem	-11978
▁nginx	-11979
▁ovens	-11980
▁perce	-11981
▁plays	-11982
▁pools	-11983
▁poses	-11984
▁price	-11985
▁pseud	-11986
▁ratio	-11987
▁realm	-11988
▁reass	-11989
▁reper	-11990
▁sally	-11991
▁scams	-11992
▁seeks	-11993
▁sight	-11994
▁signs	-11995
▁sized	-11996
▁slang	-11997
▁sound	-11998
▁sowel	-11999
-7,	-12000
3%8	-12001
515	-12002
73.	-12003
99)	-12004
DEV	-12005
This	-12006
sLAB	-12007
zero	-12008
▁80%	-12009
▁AWS	-12010
▁SMB	-12011
Admin	-12012
YPTED	-12013
guess	-12014
sniff	-12015
urses	-12016
ursor	-12017
▁1500	-12018
▁Nina	-12019
▁ORAC	-12020
▁SANS	-12021
▁hoax	-12022
Threat	-12023
second	-12024
▁Audio	-12025
▁Audit	-12026
▁Blogs	-12027
▁David	-12028
▁Deleg	-12029
▁IMINT	-12030
▁Latin	-12031
▁NIDSs	-12032
▁Older	-12033
▁Parts	-12034
▁Sanit	-12035
▁WebEx	-12036
▁Whois	-12037
▁boxes	-12038
▁dorks	-12039
▁ether	-12040
▁honey	-12041
▁north	-12042
▁spots	-12043
▁stack	-12044
▁stret	-12045
▁strip	-12046
▁tends	-12047
▁texts	-12048
▁thief	-12049
▁tight	-12050
▁toler	-12051
▁tower	-12052
▁trash	-12053
▁undes	-12054
▁vault	-12055
▁vocal	-12056
▁width	-12057
▁worst	-12058
.83.73.	-12059
:10001;	-12060
Decimal	-12061
Dipping	-12062
Dynamic	-12063
Encrypt	-12064
ForUser	-12065
Gigabit	-12066
INKEDIN	-12067
Methods	-12068
Metrics	-12069
PERFORM	-12070
Passwor	-12071
Patches	-12072
Special	-12073
Through	-12074
agoofil	-12075
allback	-12076
antages	-12077
arcodes	-12078
baltStr	-12079
casting	-12080
cedence	-12081
cements	-12082
cessful	-12083
checked	-12084
company	-12085
context	-12086
default	-12087
develop	-12088
devices	-12089
dicates	-12090
ebruary	-12091
erlinks	-12092
erseded	-12093
ethical	-12094
extract	-12095
forcing	-12096
hopping	-12097
iations	-12098
imizing	-12099
32\	-12100
DVD	-12101
SDH	-12102
/0.0	-12103
:21:	-12104
Peek	-12105
Unix	-12106
___/	-12107
ombs	-12108
▁LEA	-12109
▁MAF	-12110
▁TVs	-12111
ENAME	-12112
ETHOD	-12113
Total	-12114
paper	-12115
▁Elig	-12116
▁Keys	-12117
eptive	-12118
syslog	-12119
▁Court	-12120
▁DarkO	-12121
▁Owned	-12122
▁Sympt	-12123
▁THEIR	-12124
▁Visit	-12125
▁child	-12126
▁oblig	-12127
▁ruled	-12128
▁slash	-12129
▁stuff	-12130
▁tapes	-12131
CONFIRM	-12132
___/\__	-12133
erviews	-12134
iciency	-12135
incfile	-12136
isition	-12137
lashing	-12138
levated	-12139
lexible	-12140
ligible	-12141
lligent	-12142
macking	-12143
marking	-12144
matches	-12145
orarily	-12146
orthern	-12147
pansion	-12148
querade	-12149
recated	-12150
require	-12151
reshold	-12152
rotocol	-12153
signals	-12154
sources	-12155
tracert	-12156
velopes	-12157
venance	-12158
vendors	-12159
verters	-12160
vertise	-12161
windows	-12162
without	-12163
▁(802.3	-12164
▁(9.86%	-12165
▁0.0.0.	-12166
▁10.0.0	-12167
▁100.0,	-12168
▁1905.1	-12169
▁65,536	-12170
▁Action	-12171
▁Advers	-12172
▁Agents	-12173
▁Anyone	-12174
▁Around	-12175
▁Badges	-12176
▁Banner	-12177
▁Beyond	-12178
▁Blocks	-12179
▁Closed	-12180
▁Cmdlet	-12181
▁Commit	-12182
▁Compat	-12183
▁Comply	-12184
▁DNSSEC	-12185
▁Degaus	-12186
▁Depart	-12187
▁Detail	-12188
▁Dialup	-12189
▁Diving	-12190
▁Dotted	-12191
▁Duties	-12192
▁EPIEOS	-12193
▁Editor	-12194
▁Egress	-12195
▁Either	-12196
▁Encode	-12197
▁Endors	-12198
▁Errors	-12199
0%9	-12200
444	-12201
696	-12202
69:	-12203
97,	-12204
IoA	-12205
bnm	-12206
7001	-12207
:69:	-12208
DECR	-12209
ENDA	-12210
HVAC	-12211
almy	-12212
garb	-12213
irou	-12214
myip	-12215
▁CVE	-12216
▁Esc	-12217
▁PDF	-12218
▁UTM	-12219
:1024	-12220
▁257,	-12221
▁Elab	-12222
▁IIoT	-12223
DOCSIS	-12224
REWORK	-12225
almyra	-12226
▁2.2.3	-12227
▁27001	-12228
▁Decoy	-12229
▁Maker	-12230
▁lsusb	-12231
▁named	-12232
Android	-12233
DECRYPT	-12234
initely	-12235
▁AGENDA	-12236
▁Bottom	-12237
▁Drones	-12238
▁Escrow	-12239
▁Excell	-12240
▁Except	-12241
▁FININT	-12242
▁Fences	-12243
▁Fields	-12244
▁Formal	-12245
▁Graphs	-12246
▁Groups	-12247
▁Hashes	-12248
▁Hiding	-12249
▁Higher	-12250
▁Histor	-12251
▁Honeyd	-12252
▁Hunter	-12253
▁Invoke	-12254
▁Likely	-12255
▁Longer	-12256
▁Lozano	-12257
▁METHOD	-12258
▁Macros	-12259
▁Malice	-12260
▁Metric	-12261
▁Modems	-12262
▁Moscow	-12263
▁Mostly	-12264
▁NetBus	-12265
▁NetMon	-12266
▁Normal	-12267
▁ORACLE	-12268
▁Obfusc	-12269
▁Optics	-12270
▁Panels	-12271
▁Phases	-12272
▁Reader	-12273
▁Reduce	-12274
▁Repair	-12275
▁SIGINT	-12276
▁Sample	-12277
▁Satell	-12278
▁Screen	-12279
▁Sender	-12280
▁Skills	-12281
▁Sqlmap	-12282
▁Stores	-12283
▁Stream	-12284
▁Summar	-12285
▁Taking	-12286
▁Twelve	-12287
▁Uptime	-12288
▁Vision	-12289
▁WEAKNE	-12290
▁WEBINT	-12291
▁Weekly	-12292
▁Writer	-12293
▁XXElab	-12294
▁Yellow	-12295
▁advice	-12296
▁agency	-12297
▁analys	-12298
▁anchor	-12299
=9,	-12300
DCL	-12301
HEX	-12302
NoE	-12303
6311	-12304
GPOs	-12305
info	-12306
▁Afr	-12307
▁ESP	-12308
▁OTG	-12309
02005	-12310
APIPA	-12311
VLANs	-12312
flags	-12313
soxoj	-12314
▁(104	-12315
▁1,2,	-12316
▁4009	-12317
▁Sugg	-12318
▁UNIX	-12319
▁\__,	-12320
▁born	-12321
▁gift	-12322
▁sale	-12323
▁slot	-12324
▁urls	-12325
Hashed	-12326
▁Accur	-12327
▁Micro	-12328
▁Soxoj	-12329
▁horse	-12330
▁shape	-12331
▁triad	-12332
Process	-12333
replace	-12334
▁Juliet	-12335
▁SCRIPT	-12336
▁Vessel	-12337
▁anonym	-12338
▁aspect	-12339
▁assemb	-12340
▁badges	-12341
▁banner	-12342
▁batter	-12343
▁bigger	-12344
▁border	-12345
▁borrow	-12346
▁botnet	-12347
▁bounce	-12348
▁breaks	-12349
▁burner	-12350
▁caches	-12351
▁candid	-12352
▁career	-12353
▁centre	-12354
▁chosen	-12355
▁classt	-12356
▁compos	-12357
▁confus	-12358
▁contam	-12359
▁corpor	-12360
▁cracks	-12361
▁cypher	-12362
▁danger	-12363
▁decade	-12364
▁deface	-12365
▁defend	-12366
▁delays	-12367
▁derive	-12368
▁divide	-12369
▁encode	-12370
▁escape	-12371
▁excell	-12372
▁extent	-12373
▁fitted	-12374
▁flavor	-12375
▁forget	-12376
▁geoint	-12377
▁giving	-12378
▁grants	-12379
▁hiding	-12380
▁honest	-12381
▁humans	-12382
▁images	-12383
▁issuer	-12384
▁learns	-12385
▁lights	-12386
▁listen	-12387
▁little	-12388
▁living	-12389
▁loaded	-12390
▁loader	-12391
▁losses	-12392
▁mapped	-12393
▁market	-12394
▁markup	-12395
▁merger	-12396
▁mirror	-12397
▁modems	-12398
▁nearly	-12399
(&(	-12400
SNR	-12401
TFS	-12402
0::/	-12403
463,	-12404
▁3/4	-12405
▁MIB	-12406
▁POC	-12407
▁PTW	-12408
('');	-12409
94000	-12410
click	-12411
▁"(&(	-12412
▁LISA	-12413
▁NNTP	-12414
▁NTFS	-12415
▁SOHO	-12416
▁SPDY	-12417
▁didn	-12418
:2003.	-12419
ademic	-12420
▁Music	-12421
▁NEVER	-12422
▁Named	-12423
▁RETRI	-12424
▁Weeks	-12425
▁irres	-12426
▁music	-12427
0::/10)	-12428
Clients	-12429
▁Propag	-12430
▁VATINT	-12431
▁mimics	-12432
▁neighb	-12433
▁nuance	-12434
▁occupy	-12435
▁openly	-12436
▁orient	-12437
▁outage	-12438
▁owners	-12439
▁plasma	-12440
▁poorly	-12441
▁posing	-12442
▁printf	-12443
▁pulled	-12444
▁ransom	-12445
▁rating	-12446
▁recurs	-12447
▁refine	-12448
▁rename	-12449
▁resets	-12450
▁resist	-12451
▁retire	-12452
▁revoke	-12453
▁rooted	-12454
▁solely	-12455
▁splits	-12456
▁spoofs	-12457
▁spying	-12458
▁staffs	-12459
▁storms	-12460
▁strand	-12461
▁straps	-12462
▁stylom	-12463
▁survey	-12464
▁syslog	-12465
▁tablet	-12466
▁telnet	-12467
▁testim	-12468
▁thrown	-12469
▁timest	-12470
▁traces	-12471
▁tunnel	-12472
▁unlock	-12473
▁vacuum	-12474
▁vessel	-12475
▁vestib	-12476
▁vision	-12477
▁volume	-12478
▁volunt	-12479
▁weakly	-12480
▁whoami	-12481
▁worker	-12482
▁wouldn	-12483
▁writer	-12484
▁zeroes	-12485
.255.254	-12486
43402005	-12487
ALLENGES	-12488
Advanced	-12489
CRIMINAL	-12490
Enhanced	-12491
Ethernet	-12492
Forensic	-12493
FullName	-12494
Identify	-12495
Implicit	-12496
LINKEDIN	-12497
Location	-12498
Provides	-12499
Eye	-12500
DRPs	-12501
FQDN	-12502
OVID	-12503
RUTE	-12504
UMAR	-12505
bigu	-12506
fefc	-12507
miEx	-12508
▁***	-12509
▁/_/	-12510
▁CRC	-12511
BOOTP	-12512
Share	-12513
Whois	-12514
gonal	-12515
loris	-12516
▁'__|	-12517
▁CCTV	-12518
▁CVSS	-12519
▁HSRP	-12520
▁IGRP	-12521
▁IrDA	-12522
▁LACP	-12523
▁NULL	-12524
▁RTOS	-12525
▁TTPs	-12526
Locker	-12527
Viewer	-12528
ZATION	-12529
__/|_|	-12530
ifacts	-12531
▁65536	-12532
▁BRUTE	-12533
▁LEGAL	-12534
▁Photo	-12535
▁SHINT	-12536
▁Touch	-12537
▁alive	-12538
Control	-12539
changed	-12540
▁ACTIVE	-12541
▁Dragon	-12542
▁Scopes	-12543
▁Turnst	-12544
▁bundle	-12545
▁burned	-12546
▁chunks	-12547
▁hazard	-12548
▁solves	-12549
▁stamps	-12550
Building	-12551
Switched	-12552
adequate	-12553
anations	-12554
arvation	-12555
attacker	-12556
atuitous	-12557
cheduled	-12558
critical	-12559
cussions	-12560
determin	-12561
dividing	-12562
dividual	-12563
download	-12564
dumpster	-12565
endently	-12566
eppering	-12567
ervising	-12568
existent	-12569
extended	-12570
external	-12571
gression	-12572
gruntled	-12573
hardware	-12574
haustion	-12575
hostname	-12576
ificance	-12577
internal	-12578
iphering	-12579
iptables	-12580
language	-12581
licating	-12582
mutation	-12583
networks	-12584
onically	-12585
oretical	-12586
oriented	-12587
physical	-12588
platform	-12589
ramework	-12590
rengthen	-12591
ribution	-12592
standard	-12593
switched	-12594
switches	-12595
tethered	-12596
thogonal	-12597
throughs	-12598
ustrated	-12599
))"	-12600
Arp	-12601
RBAC	-12602
▁CEH	-12603
▁rpm	-12604
533.6	-12605
FALLS	-12606
IDDEN	-12607
MySQL	-12608
stood	-12609
▁""="	-12610
▁2108	-12611
▁4096	-12612
▁Ctrl	-12613
▁DMBS	-12614
▁DROP	-12615
▁Doly	-12616
▁Feel	-12617
▁IoCs	-12618
▁July	-12619
▁LAWS	-12620
▁LoRa	-12621
▁ONLY	-12622
▁OPEN	-12623
▁SLIP	-12624
▁Tjon	-12625
▁sqli	-12626
Finder	-12627
detect	-12628
llypop	-12629
▁24-87	-12630
▁TRACE	-12631
▁dmesg	-12632
▁ephem	-12633
▁lspci	-12634
▁noisy	-12635
Ethical	-12636
Utility	-12637
updates	-12638
▁155.52	-12639
▁Cannon	-12640
▁Chrome	-12641
▁French	-12642
▁HIDDEN	-12643
▁HUMINT	-12644
.128.0.0	-12645
Incident	-12646
idNumber	-12647
iexplore	-12648
speaking	-12649
ventions	-12650
wireless	-12651
▁8.8.8.8	-12652
▁ANOTHER	-12653
▁Acronis	-12654
▁Archive	-12655
▁Aspects	-12656
▁Auditor	-12657
▁Autopsy	-12658
▁Banners	-12659
▁Bazzell	-12660
▁Benefit	-12661
▁Between	-12662
▁Bitrate	-12663
▁Blocked	-12664
▁CSRFLAB	-12665
▁Cameron	-12666
▁Centers	-12667
▁Charles	-12668
▁Cibergy	-12669
▁Closing	-12670
▁Confirm	-12671
▁Conquer	-12672
▁Consume	-12673
▁Correct	-12674
▁Current	-12675
▁DHCPACK	-12676
▁Decoder	-12677
▁Decrypt	-12678
▁Despite	-12679
▁Dialect	-12680
▁Drivers	-12681
▁EXPLORE	-12682
▁Efforts	-12683
▁Enacted	-12684
▁Enforce	-12685
▁Examine	-12686
▁Facilit	-12687
▁Federal	-12688
▁Finance	-12689
▁Firefox	-12690
▁Foreign	-12691
▁Formats	-12692
▁Further	-12693
▁Gaining	-12694
▁Gravity	-12695
▁HTTrack	-12696
▁Hackers	-12697
▁History	-12698
▁Horizon	-12699
Risks	-12700
ADPass	-12701
ORIGIN	-12702
QUIRED	-12703
▁Baidu	-12704
▁CHECK	-12705
▁CNSSI	-12706
▁FIRST	-12707
▁Nikto	-12708
▁OFFIC	-12709
▁Sebek	-12710
▁Yahoo	-12711
▁cabin	-12712
Consent	-12713
DOCROOT	-12714
gallery	-12715
objectC	-12716
ortiums	-12717
▁04:13:	-12718
▁800-44	-12719
▁APPLIC	-12720
▁Aisles	-12721
▁BREACH	-12722
▁CUSTOM	-12723
▁Caesar	-12724
▁Citrix	-12725
▁FRAMES	-12726
▁SYSLOG	-12727
▁kiddie	-12728
RECREATE	-12729
SECURITY	-12730
receiver	-12731
stantial	-12732
▁ADVISOR	-12733
▁Against	-12734
▁CONTRIB	-12735
▁Cookies	-12736
▁ETHICAL	-12737
▁Faraday	-12738
▁Imagery	-12739
▁Ingress	-12740
▁Intimid	-12741
▁Invalid	-12742
▁Islands	-12743
▁JRISTOS	-12744
▁Keeping	-12745
▁Layered	-12746
▁Legally	-12747
▁Library	-12748
▁Logical	-12749
▁MISSING	-12750
▁Manages	-12751
▁Mapping	-12752
▁Masking	-12753
▁Members	-12754
▁Monthly	-12755
▁Notices	-12756
▁OUTLOOK	-12757
▁Offsite	-12758
▁OpenSSL	-12759
▁Opening	-12760
▁Operate	-12761
▁PACKETS	-12762
▁PADDING	-12763
▁Partial	-12764
▁Placing	-12765
▁Pointer	-12766
▁Popular	-12767
▁Posting	-12768
▁Premise	-12769
▁Prepare	-12770
▁Purging	-12771
▁Recover	-12772
▁RedTeam	-12773
▁Release	-12774
▁Replace	-12775
▁Reviews	-12776
▁Rundown	-12777
▁Running	-12778
▁SEGMENT	-12779
▁SOURCES	-12780
▁Sagaing	-12781
▁Salting	-12782
▁Shijack	-12783
▁Signing	-12784
▁Solaris	-12785
▁Standby	-12786
▁Stealth	-12787
▁Tabayin	-12788
▁Tablets	-12789
▁Tagging	-12790
▁Telecon	-12791
▁Thunder	-12792
▁Verdict	-12793
▁Victims	-12794
▁Viewing	-12795
▁Vishing	-12796
▁WITHOUT	-12797
▁WinDump	-12798
▁Working	-12799
▁RETURN	-12800
▁camera	-12801
▁cursor	-12802
DEVAIDAN	-12803
FILENAME	-12804
▁CONNECT	-12805
▁DarkOwl	-12806
▁Jristos	-12807
▁Solicit	-12808
▁Writing	-12809
▁XXEWILL	-12810
▁Youtube	-12811
▁anomaly	-12812
▁anticip	-12813
▁anymore	-12814
▁apparen	-12815
▁avatars	-12816
▁backend	-12817
▁backing	-12818
▁balance	-12819
▁banners	-12820
▁barrier	-12821
▁billing	-12822
▁blocker	-12823
▁bonding	-12824
▁brokers	-12825
▁brought	-12826
▁careers	-12827
▁certify	-12828
▁charges	-12829
▁chassis	-12830
▁cheaper	-12831
▁checked	-12832
▁chooses	-12833
▁classes	-12834
▁classic	-12835
▁clauses	-12836
▁cloning	-12837
▁closely	-12838
▁closest	-12839
▁comment	-12840
▁compart	-12841
▁compens	-12842
▁comptia	-12843
▁conceal	-12844
▁coupled	-12845
▁cyphers	-12846
▁decided	-12847
▁decimal	-12848
▁degrade	-12849
▁delayed	-12850
▁demands	-12851
▁deploys	-12852
▁designs	-12853
▁dictate	-12854
▁discont	-12855
▁diverse	-12856
▁economy	-12857
▁emotion	-12858
▁entails	-12859
▁erasure	-12860
▁evolved	-12861
▁factory	-12862
▁fishing	-12863
▁forests	-12864
▁founder	-12865
▁fragile	-12866
▁freedom	-12867
▁garbled	-12868
▁gleaned	-12869
▁governs	-12870
▁grapple	-12871
▁heavily	-12872
▁helping	-12873
▁highest	-12874
▁hopping	-12875
▁hostile	-12876
▁hotspot	-12877
▁ignored	-12878
▁imposed	-12879
▁infects	-12880
▁keypads	-12881
▁lawsuit	-12882
▁layouts	-12883
▁leakage	-12884
▁leaking	-12885
▁lifting	-12886
▁locking	-12887
▁lockout	-12888
▁loyalty	-12889
▁markets	-12890
▁merging	-12891
▁mislead	-12892
▁modular	-12893
▁monthly	-12894
▁mounted	-12895
▁needing	-12896
▁numeric	-12897
▁observe	-12898
▁officer	-12899
▁offices	-12900
▁offload	-12901
▁opinion	-12902
▁opposed	-12903
▁ordered	-12904
▁pairing	-12905
▁pentest	-12906
▁periods	-12907
▁picture	-12908
▁pinning	-12909
▁plastic	-12910
▁policym	-12911
▁portals	-12912
▁posting	-12913
▁premise	-12914
▁premium	-12915
▁ranging	-12916
▁reaches	-12917
▁reality	-12918
▁remnant	-12919
▁removal	-12920
▁repairs	-12921
▁reprodu	-12922
▁resides	-12923
▁restart	-12924
▁roaming	-12925
▁salting	-12926
▁scanned	-12927
▁scraped	-12928
▁sectors	-12929
▁secures	-12930
▁selling	-12931
▁society	-12932
▁spatial	-12933
▁speaker	-12934
▁specify	-12935
▁station	-12936
▁sublist	-12937
▁subvert	-12938
▁swapped	-12939
▁symptom	-12940
▁teaming	-12941
▁trained	-12942
▁trapped	-12943
▁unicast	-12944
▁uniform	-12945
▁unusual	-12946
▁upgrade	-12947
▁uploads	-12948
▁userdel	-12949
▁utilize	-12950
▁vehicle	-12951
▁vessels	-12952
▁violate	-12953
▁visible	-12954
▁wherein	-12955
CRIMINALS	-12956
Fcallback	-12957
Firewalls	-12958
INJECTION	-12959
Intrusion	-12960
LessShell	-12961
NoErrorRe	-12962
Transport	-12963
advantage	-12964
ailbroken	-12965
balancing	-12966
certainty	-12967
clgEomOrR	-12968
compliant	-12969
computers	-12970
consuming	-12971
continued	-12972
discovery	-12973
dividuals	-12974
effective	-12975
extractor	-12976
filtering	-12977
generated	-12978
getsystem	-12979
ifficulty	-12980
inguished	-12981
intrusive	-12982
iteration	-12983
ixAccount	-12984
knowledge	-12985
ledgement	-12986
locations	-12987
malicious	-12988
miExecute	-12989
repeaters	-12990
sandboxes	-12991
shellcode	-12992
stituting	-12993
technical	-12994
vertising	-12995
wordBrute	-12996
▁(12.69%)	-12997
▁(76.27%)	-12998
▁(9.86%),	-12999
▁10101000	-13000
▁20230723	-13001
▁86.1.1.1	-13002
▁ANalyzer	-13003
▁Absinthe	-13004
▁Accounts	-13005
▁Accuracy	-13006
▁Activity	-13007
▁Analysts	-13008
▁Appetite	-13009
▁Backdoor	-13010
▁Berkeley	-13011
▁Blackdot	-13012
▁Bootcamp	-13013
▁Captures	-13014
▁Catchall	-13015
▁Chaining	-13016
▁Cleaning	-13017
▁Clearing	-13018
▁Concrete	-13019
▁Continue	-13020
▁Crafting	-13021
▁Creation	-13022
▁Cultural	-13023
▁Defining	-13024
▁Demonstr	-13025
▁Designed	-13026
▁Eavesdro	-13027
▁Elevated	-13028
▁Engineer	-13029
▁Escalate	-13030
▁Exceeded	-13031
▁Gallegos	-13032
▁Grabbing	-13033
▁Graphing	-13034
▁Hamilton	-13035
▁Helpdesk	-13036
▁Honeynet	-13037
▁Improper	-13038
▁Informed	-13039
▁Inherits	-13040
▁Insights	-13041
▁Intruder	-13042
▁Involved	-13043
▁Japanese	-13044
▁Journals	-13045
▁Labeling	-13046
▁Linkedin	-13047
▁Listener	-13048
▁Lollypop	-13049
▁Machines	-13050
▁Mandiant	-13051
▁Mantraps	-13052
▁Measured	-13053
▁Monitors	-13054
▁Negative	-13055
▁Neighbor	-13056
▁NetCraft	-13057
▁Official	-13058
▁Oriented	-13059
▁Overflow	-13060
▁PASSWORD	-13061
▁PITFALLS	-13062
▁Packages	-13063
▁Performs	-13064
▁Practice	-13065
▁Probable	-13066
▁Produces	-13067
▁Programs	-13068
▁Projects	-13069
▁Protects	-13070
▁Relaying	-13071
▁Renaming	-13072
▁Residual	-13073
▁Resource	-13074
▁Rollover	-13075
▁Rotation	-13076
▁STEALING	-13077
▁Scarcity	-13078
▁Schedule	-13079
▁Sections	-13080
▁Securing	-13081
▁Shortest	-13082
▁Shoulder	-13083
▁Skopenow	-13084
▁Snapshot	-13085
▁Solitary	-13086
▁Spanning	-13087
▁Starting	-13088
▁Straight	-13089
▁Strategy	-13090
▁Subjects	-13091
▁Suddenly	-13092
▁Suggests	-13093
▁Symptoms	-13094
▁Tabletop	-13095
▁Teardrop	-13096
▁Torvalds	-13097
▁Tripwire	-13098
▁USERNAME	-13099
▁Universe	-13100
▁Unlikely	-13101
▁Username	-13102
▁Validate	-13103
▁Vehicles	-13104
▁Verifies	-13105
▁Wrapping	-13106
▁activate	-13107
▁actually	-13108
▁adapters	-13109
▁adjacent	-13110
▁advocate	-13111
▁airwaves	-13112
▁argument	-13113
▁arranged	-13114
▁articles	-13115
▁assisted	-13116
▁auditing	-13117
▁binaries	-13118
▁breaking	-13119
▁browsing	-13120
▁bypasses	-13121
▁cabinets	-13122
▁cautious	-13123
▁checking	-13124
▁choosing	-13125
▁cleaners	-13126
▁cleaning	-13127
▁clicking	-13128
▁clusters	-13129
▁composed	-13130
▁concrete	-13131
▁conducts	-13132
▁conserve	-13133
▁consolid	-13134
▁damaging	-13135
▁datagram	-13136
▁deadbolt	-13137
▁decibels	-13138
▁decrease	-13139
▁delaying	-13140
▁dictated	-13141
▁disabled	-13142
▁disables	-13143
▁disclose	-13144
▁disguise	-13145
▁drafting	-13146
▁eXternal	-13147
▁elevates	-13148
▁emerging	-13149
▁enacting	-13150
▁engaging	-13151
▁entirety	-13152
▁ethernet	-13153
▁everyday	-13154
▁examined	-13155
▁explorer	-13156
▁explores	-13157
▁exterior	-13158
▁extracts	-13159
▁feedback	-13160
▁foremost	-13161
▁frequent	-13162
▁friendly	-13163
▁globally	-13164
▁governed	-13165
▁grayware	-13166
▁grounded	-13167
▁grouping	-13168
▁guidance	-13169
▁hampered	-13170
▁hardened	-13171
▁harmless	-13172
▁hierarch	-13173
▁ignoring	-13174
▁infector	-13175
▁inherent	-13176
▁innocent	-13177
▁inserted	-13178
▁interact	-13179
▁interfer	-13180
▁launched	-13181
▁lighting	-13182
▁lockable	-13183
▁loopback	-13184
▁mandated	-13185
▁manifest	-13186
▁mastered	-13187
▁maximize	-13188
▁missions	-13189
▁movement	-13190
▁negative	-13191
▁occasion	-13192
▁occupies	-13193
▁operator	-13194
▁ordinary	-13195
▁oriented	-13196
▁outbound	-13197
▁outright	-13198
▁overflow	-13199
▁patients	-13200
▁personas	-13201
▁pertains	-13202
▁portions	-13203
▁pretends	-13204
▁progress	-13205
▁projects	-13206
▁readable	-13207
▁reflects	-13208
▁register	-13209
▁rejected	-13210
▁relating	-13211
▁relation	-13212
▁removing	-13213
▁renaming	-13214
▁revoking	-13215
▁rightful	-13216
▁sampling	-13217
▁shutting	-13218
▁spawning	-13219
▁spectral	-13220
▁sprinkle	-13221
▁statutes	-13222
▁suppress	-13223
▁surfaces	-13224
▁takeover	-13225
▁tangible	-13226
▁telegram	-13227
▁threaten	-13228
▁throttle	-13229
▁traverse	-13230
▁trusting	-13231
▁unchange	-13232
▁uniquely	-13233
▁unlikely	-13234
▁unsalted	-13235
▁upstream	-13236
▁validity	-13237
▁variants	-13238
▁visiting	-13239
▁volatile	-13240
▁warnings	-13241
▁workflow	-13242
▁yourself	-13243
Addressing	-13244
Encrypting	-13245
INTEGRATED	-13246
LoadOOBEnt	-13247
Monitoring	-13248
Networking	-13249
Persistent	-13250
accessible	-13251
baltStrike	-13252
classified	-13253
collection	-13254
configures	-13255
determines	-13256
getElement	-13257
ibernation	-13258
iversities	-13259
mentalized	-13260
ourcompany	-13261
reversible	-13262
rospective	-13263
ufacturing	-13264
worthiness	-13265
▁Addressed	-13266
▁Advertise	-13267
▁Affiliate	-13268
▁Alternate	-13269
▁Anomalies	-13270
▁Anonymous	-13271
▁Anthropic	-13272
▁Archiving	-13273
▁Associate	-13274
▁Authentic	-13275
▁Automatic	-13276
▁Basically	-13277
▁Behaviour	-13278
▁Blackhole	-13279
▁Certifier	-13280
▁Challenge	-13281
▁Civilians	-13282
▁Computers	-13283
▁Consensus	-13284
▁Converter	-13285
▁Crimewall	-13286
▁DHCPOFFER	-13287
▁Defending	-13288
▁Developer	-13289
▁Disasters	-13290
▁Duplicate	-13291
▁ENCRYPTED	-13292
▁Ecosystem	-13293
▁Elaborate	-13294
▁Enhancing	-13295
▁Expensive	-13296
▁Exploring	-13297
▁Expressed	-13298
▁Extension	-13299
▁Filenames	-13300
▁Forwarded	-13301
▁Generates	-13302
▁Hierarchy	-13303
▁Hypertext	-13304
▁Inability	-13305
▁Inclusion	-13306
▁Indicates	-13307
▁Infection	-13308
▁Injecting	-13309
▁Intention	-13310
▁Interpret	-13311
▁Inventory	-13312
▁Inverters	-13313
▁Isolation	-13314
▁Jurisdict	-13315
▁LANDSCAPE	-13316
▁Maintains	-13317
▁Mechanism	-13318
▁Modifying	-13319
▁Operators	-13320
▁Organized	-13321
▁PARAMETER	-13322
▁PadBuster	-13323
▁Parameter	-13324
▁Performed	-13325
▁Permanent	-13326
▁Personnel	-13327
▁Pluggable	-13328
▁Practical	-13329
▁Primarily	-13330
▁Qualified	-13331
▁Reception	-13332
▁Reflected	-13333
▁Remanence	-13334
▁Removable	-13335
▁STRENGTHS	-13336
▁Scholarly	-13337
▁Secondary	-13338
▁Segmented	-13339
▁Sentiment	-13340
▁Shellcode	-13341
▁Simulates	-13342
▁Slowloris	-13343
▁Specifies	-13344
▁Strengths	-13345
▁Summarize	-13346
▁THREATINT	-13347
▁TJONAJONG	-13348
▁Technique	-13349
▁Telephone	-13350
▁Temporary	-13351
▁Tjonajong	-13352
▁Transmits	-13353
▁Treatment	-13354
▁Universal	-13355
▁Upgrading	-13356
▁Violation	-13357
▁Visualize	-13358
▁XHRSCRIPT	-13359
▁adherence	-13360
▁adversely	-13361
▁aerospace	-13362
▁anomalous	-13363
▁attempted	-13364
▁attitudes	-13365
▁attorneys	-13366
▁attribute	-13367
▁batteries	-13368
▁blacklist	-13369
▁brutforce	-13370
▁bypassing	-13371
▁calculate	-13372
▁candidate	-13373
▁certifier	-13374
▁classtype	-13375
▁cognitive	-13376
▁compiling	-13377
▁comprises	-13378
▁concerned	-13379
▁confident	-13380
▁consensus	-13381
▁consumers	-13382
▁container	-13383
▁continued	-13384
▁continues	-13385
▁converter	-13386
▁corrosion	-13387
▁crossover	-13388
▁deceptive	-13389
▁demanding	-13390
▁detectors	-13391
▁deterrent	-13392
▁diligence	-13393
▁directors	-13394
▁eXpansion	-13395
▁eavesdrop	-13396
▁elsewhere	-13397
▁encourage	-13398
▁enhancing	-13399
▁enriching	-13400
▁ephemeral	-13401
▁estimated	-13402
▁evaluates	-13403
▁exchanged	-13404
▁executive	-13405
▁existence	-13406
▁falsified	-13407
▁favorable	-13408
▁featuring	-13409
▁forwarded	-13410
▁furniture	-13411
▁generator	-13412
▁grounding	-13413
▁hardcoded	-13414
▁honeynets	-13415
▁hopefully	-13416
▁illegally	-13417
▁incidence	-13418
▁induction	-13419
▁infection	-13420
▁informing	-13421
▁initially	-13422
▁initiated	-13423
▁integrate	-13424
▁intervals	-13425
▁involving	-13426
▁languages	-13427
▁leveraged	-13428
▁licensing	-13429
▁lowercase	-13430
▁manifests	-13431
▁minimized	-13432
▁misdirect	-13433
▁movements	-13434
▁multipath	-13435
▁narrative	-13436
▁necessity	-13437
▁obfuscate	-13438
▁obstacles	-13439
▁obviously	-13440
▁overflows	-13441
▁overwrite	-13442
▁paramount	-13443
▁penetrate	-13444
▁perimeter	-13445
▁precision	-13446
▁prevalent	-13447
▁profiling	-13448
▁prohibits	-13449
▁publisher	-13450
▁purchases	-13451
▁radiation	-13452
▁reception	-13453
▁recovered	-13454
▁reflected	-13455
▁relatives	-13456
▁remaining	-13457
▁repeaters	-13458
▁replicate	-13459
▁reproduce	-13460
▁resolving	-13461
▁retrieves	-13462
▁reversing	-13463
▁reviewing	-13464
▁revisions	-13465
▁sanctions	-13466
▁seriously	-13467
▁shielding	-13468
▁similarly	-13469
▁snapshots	-13470
▁specially	-13471
▁splitting	-13472
▁sprinkler	-13473
▁subdomain	-13474
▁subsystem	-13475
▁summarize	-13476
▁superuser	-13477
▁supplying	-13478
▁threshold	-13479
▁throttled	-13480
▁throttles	-13481
▁timeframe	-13482
▁timelines	-13483
▁undesired	-13484
▁uninstall	-13485
▁unpatched	-13486
▁unpredict	-13487
▁usernames	-13488
▁utilizing	-13489
▁variation	-13490
▁vestibule	-13491
▁violation	-13492
▁whitelist	-13493
GetProperty	-13494
IEBookmarks	-13495
Persistence	-13496
REGULATIONS	-13497
Specialists	-13498
application	-13499
donutfiesta	-13500
interaction	-13501
istribution	-13502
overlapping	-13503
positioning	-13504
recommended	-13505
relatedness	-13506
replicating	-13507
transparent	-13508
▁127.0.0.1;	-13509
▁Actionable	-13510
▁Advantages	-13511
▁Annualized	-13512
▁Associated	-13513
▁CHALLENGES	-13514
▁Ciphertext	-13515
▁Completely	-13516
▁Complexity	-13517
▁Connecting	-13518
▁Continuous	-13519
▁Controlled	-13520
▁Converters	-13521
▁Converting	-13522
▁DARKWEBINT	-13523
▁Defacement	-13524
▁Degaussing	-13525
▁Department	-13526
▁Diagnostic	-13527
▁Difficulty	-13528
▁Disclosure	-13529
▁Disconnect	-13530
▁Disruption	-13531
▁Elasticity	-13532
▁Encrypting	-13533
▁Enrollment	-13534
▁Evaluating	-13535
▁Eventually	-13536
▁Excellence	-13537
▁Expectancy	-13538
▁Expiration	-13539
▁Guidelines	-13540
▁Harvesting	-13541
▁Implements	-13542
▁Improperly	-13543
▁Interviews	-13544
▁Keyloggers	-13545
▁Leveraging	-13546
▁Limitation	-13547
▁Metagoofil	-13548
▁Mismatches	-13549
▁Motivation	-13550
▁Multimedia	-13551
▁Multiverse	-13552
▁NULLORIGIN	-13553
▁Newspapers	-13554
▁Orthogonal	-13555
▁Pentesting	-13556
▁Physically	-13557
▁Prepending	-13558
▁Preventive	-13559
▁Protecting	-13560
▁Purchasing	-13561
▁Regardless	-13562
▁Resilience	-13563
▁Satellites	-13564
▁Scientific	-13565
▁Screenshot	-13566
▁Segmenting	-13567
▁Signatures	-13568
▁Structured	-13569
▁Subdomains	-13570
▁Subnetting	-13571
▁Syndicates	-13572
▁Unshielded	-13573
▁Validation	-13574
▁Virustotal	-13575
▁WEAKNESSES	-13576
▁XXElabsLAB	-13577
▁accredited	-13578
▁admissible	-13579
▁allocating	-13580
▁amendments	-13581
▁assistance	-13582
▁automating	-13583
▁bellingcat	-13584
▁biological	-13585
▁biometrics	-13586
▁bootloader	-13587
▁boundaries	-13588
▁candidates	-13589
▁colocation	-13590
▁comparable	-13591
▁compelling	-13592
▁conductive	-13593
▁consisting	-13594
▁constantly	-13595
▁consultant	-13596
▁convenient	-13597
▁convention	-13598
▁converters	-13599
▁convincing	-13600
▁deliberate	-13601
▁deprecated	-13602
▁describing	-13603
▁destroying	-13604
▁detections	-13605
▁deterrence	-13606
▁developing	-13607
▁difficulty	-13608
▁directions	-13609
▁directives	-13610
▁disability	-13611
▁discretion	-13612
▁displaying	-13613
▁disruptive	-13614
▁downstream	-13615
▁emphasized	-13616
▁employment	-13617
▁enumerated	-13618
▁enumerates	-13619
▁equivalent	-13620
▁escalation	-13621
▁estimating	-13622
▁evaluating	-13623
▁experiment	-13624
▁expiration	-13625
▁extensions	-13626
▁finalizing	-13627
▁guarantees	-13628
▁healthcare	-13629
▁hyperlinks	-13630
▁implements	-13631
▁implicitly	-13632
▁influenced	-13633
▁influences	-13634
▁injections	-13635
▁innovation	-13636
▁interprets	-13637
▁introduces	-13638
▁intrusions	-13639
▁leadership	-13640
▁litigation	-13641
▁masquerade	-13642
▁measurable	-13643
▁mechanical	-13644
▁misleading	-13645
▁modulation	-13646
▁multipoint	-13647
▁negatively	-13648
▁obligation	-13649
▁overcoming	-13650
▁permitting	-13651
▁precursors	-13652
▁prediction	-13653
▁predictive	-13654
▁prescribed	-13655
▁principals	-13656
▁properties	-13657
▁provisions	-13658
▁quarantine	-13659
▁reasonably	-13660
▁reassembly	-13661
▁referenced	-13662
▁reflecting	-13663
▁reflection	-13664
▁registered	-13665
▁registries	-13666
▁regulating	-13667
▁regulation	-13668
▁repeatable	-13669
▁replicates	-13670
▁resiliency	-13671
▁respective	-13672
▁retrieving	-13673
▁reversible	-13674
▁scientific	-13675
▁sequencing	-13676
▁strengthen	-13677
▁stretching	-13678
▁structures	-13679
▁stylometry	-13680
▁subnetting	-13681
▁subnetwork	-13682
▁television	-13683
▁terminates	-13684
▁uncovering	-13685
▁understood	-13686
▁validating	-13687
▁visualized	-13688
EventForUser	-13689
Implementing	-13690
Introduction	-13691
ToSamAccount	-13692
Transmission	-13693
authenticate	-13694
▁(104.83.73.	-13695
▁17024:2003.	-13696
▁1905.1-2013	-13697
▁192.168.1.3	-13698
▁255.128.0.0	-13699
▁CONTRIBUTOR	-13700
▁Centralized	-13701
▁Compliances	-13702
▁Conventions	-13703
▁Credentials	-13704
▁DHCPREQUEST	-13705
▁DNSdumpster	-13706
▁Directional	-13707
▁Downgrading	-13708
▁Eligibility	-13709
▁Establishes	-13710
▁Familiarity	-13711
▁Generalized	-13712
▁Ideological	-13713
▁Incremental	-13714
▁Individuals	-13715
▁Initiatives	-13716
▁Innovations	-13717
▁Legislation	-13718
▁Maintaining	-13719
▁Obfuscation	-13720
▁Overloading	-13721
▁Preparation	-13722
▁Recognition	-13723
▁Recognizing	-13724
▁Recommended	-13725
▁Represented	-13726
▁Restoration	-13727
▁RewriteCond	-13728
▁Screenshots	-13729
▁Significant	-13730
▁Situational	-13731
▁Smartphones	-13732
▁Sovereignty	-13733
▁Strategical	-13734
▁Subdividing	-13735
▁Subnetworks	-13736
▁Subscribers	-13737
▁Summarizing	-13738
▁Terminology	-13739
▁ThreatCrowd	-13740
▁Trafficking	-13741
▁Unencrypted	-13742
▁Unnecessary	-13743
▁Wiretapping	-13744
▁abstracting	-13745
▁accompanied	-13746
▁accordingly	-13747
▁attenuation	-13748
▁attestation	-13749
▁attribution	-13750
▁bottlenecks	-13751
▁comparisons	-13752
▁complicated	-13753
▁conjunction	-13754
▁constituent	-13755
▁consumption	-13756
▁contractual	-13757
▁designators	-13758
▁differently	-13759
▁directional	-13760
▁disturbance	-13761
▁electronics	-13762
▁encapsulate	-13763
▁endorsement	-13764
▁engagements	-13765
▁enterprises	-13766
▁erratically	-13767
▁essentially	-13768
▁experienced	-13769
▁explanation	-13770
▁fragmenting	-13771
▁generalized	-13772
▁handshaking	-13773
▁hierarchies	-13774
▁identifiers	-13775
▁immediately	-13776
▁importantly	-13777
▁ineffective	-13778
▁inefficient	-13779
▁intelligent	-13780
▁interacting	-13781
▁interactive	-13782
▁intercepted	-13783
▁interpreter	-13784
▁manipulates	-13785
▁nameservers	-13786
▁necessitate	-13787
▁newsletters	-13788
▁obfuscation	-13789
▁offboarding	-13790
▁orientation	-13791
▁perpetrator	-13792
▁politicians	-13793
▁polymorphic	-13794
▁prioritized	-13795
▁problematic	-13796
▁proceedings	-13797
▁proficiency	-13798
▁reconstruct	-13799
▁recoverable	-13800
▁reflections	-13801
▁replication	-13802
▁represented	-13803
▁requisition	-13804
▁researching	-13805
▁restoration	-13806
▁segregation	-13807
▁simulations	-13808
▁statistical	-13809
▁substantial	-13810
▁supervising	-13811
▁supervisory	-13812
▁suppression	-13813
▁tLclgEomOrR	-13814
▁temporarily	-13815
▁theoretical	-13816
▁threatening	-13817
▁throughpout	-13818
▁uncertainty	-13819
▁underground	-13820
▁understands	-13821
▁unreachable	-13822
▁unregulated	-13823
▁unscheduled	-13824
8:137:74:187:	-13825
Configuration	-13826
Electrostatic	-13827
NoErrorReport	-13828
authoritative	-13829
▁169.254.0.1,	-13830
▁Additionally	-13831
▁Bluesmacking	-13832
▁CSRFLABSWILL	-13833
▁CobaltStrike	-13834
▁Computerized	-13835
▁Concentrator	-13836
▁Construction	-13837
▁DHCPDISCOVER	-13838
▁Differential	-13839
▁Discoverable	-13840
▁Exfiltration	-13841
▁Improvements	-13842
▁Intimidation	-13843
▁Investigates	-13844
▁Manipulating	-13845
▁Multipartite	-13846
▁OSRFramework	-13847
▁Overwhelming	-13848
▁Quantifiable	-13849
▁Sanitization	-13850
▁Substitution	-13851
▁ThunderShell	-13852
▁Transmitting	-13853
▁Transparency	-13854
▁Unauthorized	-13855
▁accompanying	-13856
▁authenticity	-13857
▁broadcasting	-13858
▁categorizing	-13859
▁circumvented	-13860
▁completeness	-13861
▁considerably	-13862
▁corporations	-13863
▁customizable	-13864
▁deliverables	-13865
▁developments	-13866
▁disadvantage	-13867
▁disconnected	-13868
▁enhancements	-13869
▁geopolitical	-13870
▁incorporates	-13871
▁indefinitely	-13872
▁institutions	-13873
▁intellectual	-13874
▁intelligencH	-13875
▁intermediary	-13876
▁irrespective	-13877
▁jailbreaking	-13878
▁metropolitan	-13879
▁preservation	-13880
▁programmable	-13881
▁reservations	-13882
▁significance	-13883
▁supplemental	-13884
▁transference	-13885
▁transparency	-13886
▁unchangeable	-13887
▁unstructured	-13888
8:137:74:187:1	-13889
getElementById	-13890
implementation	-13891
objectCategory	-13892
wordBruteForce	-13893
▁192.168.1.254	-13894
▁217.45.2533.6	-13895
▁CYBERSECURITY	-13896
▁Communicating	-13897
▁Compatibility	-13898
▁Consideration	-13899
▁Cryptanalysis	-13900
▁Eavesdropping	-13901
▁Exploitaition	-13902
▁Functionality	-13903
▁Misconfigured	-13904
▁Multiprotocol	-13905
▁Notifications	-13906
▁Specification	-13907
▁applicability	-13908
▁approximately	-13909
▁architectural	-13910
▁characterized	-13911
▁chronological	-13912
▁collaboration	-13913
▁conversations	-13914
▁corresponding	-13915
▁cryptanalysis	-13916
▁demonstrating	-13917
▁demultiplexed	-13918
▁disconnecting	-13919
▁encapsulating	-13920
▁inadvertently	-13921
▁independently	-13922
▁institutional	-13923
▁manageability	-13924
▁notifications	-13925
▁orchestration	-13926
▁practitioners	-13927
▁prerequisites	-13928
▁repercussions	-13929
▁technological	-13930
▁unpredictable	-13931
▁137.74.187.101	-13932
▁137.74.187.102	-13933
▁217.45.253.5:6	-13934
▁255.255.255.0.	-13935
▁CYBERCRIMINALS	-13936
▁Connectionless	-13937
▁PowerLessShell	-13938
▁Responsibility	-13939
▁contextualized	-13940
▁initialization	-13941
▁interconnected	-13942
▁jurisdictional	-13943
▁misinformation	-13944
▁sophistication	-13945
▁transformation	-13946
▁111.111.111.000	-13947
▁169.254.255.254	-13948
▁192.168.63.2#53	-13949
▁77,72.206.10:80	-13950
▁77.72.206.10:80	-13951
▁Deserialization	-13952
▁Inteltechniques	-13953
▁Standardization	-13954
▁Systematization	-13955
▁computationally	-13956
▁functionalities	-13957
▁straightforward	-13958
▁trustworthiness	-13959
!”	-13960
#5	-13961
#6	-13962
#7	-13963
%7	-13964
&#	-13965
':	-13966
(1	-13967
(2	-13968
(\	-13969
)/	-13970
+)	-13971
+?	-13972
,'	-13973
,2	-13974
-)	-13975
.:	-13976
/7	-13977
/8	-13978
0%	-13979
1-	-13980
1/	-13981
1;	-13982
2)	-13983
2-	-13984
2/	-13985
26	-13986
2”	-13987
3-	-13988
3;	-13989
4%	-13990
40	-13991
41	-13992
5%	-13993
5)	-13994
51	-13995
62	-13996
9/	-13997
:7	-13998
=.	-13999
"/	-14000
"]	-14001
,3	-14002
,8	-14003
3+	-14004
34	-14005
5+	-14006
9_	-14007
?#	-14008
?*	-14009
AO	-14010
Ah	-14011
Al	-14012
BM	-14013
BR	-14014
BT	-14015
Ba	-14016
Bo	-14017
CW	-14018
Cl	-14019
Cy	-14020
Dd	-14021
EA	-14022
EU	-14023
FF	-14024
FR	-14025
FS	-14026
GE	-14027
GV	-14028
Gb	-14029
Gh	-14030
HT	-14031
IF	-14032
IJ	-14033
IK	-14034
If	-14035
Ir	-14036
JS	-14037
KF	-14038
KR	-14039
KS	-14040
Li	-14041
MU	-14042
MX	-14043
Me	-14044
Mr	-14045
NI	-14046
OJ	-14047
PK	-14048
Qt	-14049
RK	-14050
RV	-14051
Rs	-14052
Sm	-14053
So	-14054
TK	-14055
TN	-14056
TT	-14057
VS	-14058
WA	-14059
XH	-14060
YI	-14061
YY	-14062
ZQ	-14063
ZZ	-14064
Ze	-14065
\.	-14066
],	-14067
_)	-14068
_.	-14069
aq	-14070
au	-14071
bf	-14072
cn	-14073
da	-14074
dc	-14075
dh	-14076
dy	-14077
eL	-14078
ek	-14079
eo	-14080
fy	-14081
gm	-14082
hu	-14083
hw	-14084
ih	-14085
ii	-14086
ja	-14087
ju	-14088
kt	-14089
lT	-14090
lm	-14091
mk	-14092
nC	-14093
nP	-14094
nn	-14095
nv	-14096
po	-14097
rn	-14098
sf	-14099
+,	-14100
+:	-14101
-*	-14102
6!	-14103
:-	-14104
=5	-14105
?!	-14106
Iy	-14107
Ln	-14108
NX	-14109
Oh	-14110
Ox	-14111
UX	-14112
sl	-14113
sm	-14114
sv	-14115
sy	-14116
tf	-14117
tk	-14118
tw	-14119
uS	-14120
ui	-14121
vl	-14122
wb	-14123
xr	-14124
yV	-14125
yx	-14126
za	-14127
ze	-14128
zi	-14129
|-	-14130
“)	-14131
”?	-14132
.88	-14133
/0.	-14134
0-2	-14135
03,	-14136
1,3	-14137
100	-14138
101	-14139
173	-14140
1:4	-14141
3-7	-14142
383	-14143
4/5	-14144
555	-14145
627	-14146
777	-14147
800	-14148
927	-14149
:56	-14150
:81	-14151
==0	-14152
AOL	-14153
Ahm	-14154
CAN	-14155
COS	-14156
CRk	-14157
Cap	-14158
Cus	-14159
DES	-14160
Ddg	-14161
Don	-14162
ESI	-14163
FBI	-14164
FRR	-14165
Fat	-14166
Fid	-14167
GNU	-14168
HEK	-14169
Hiz	-14170
IME	-14171
Lin	-14172
Low	-14173
Man	-14174
OCT	-14175
OUS	-14176
PER	-14177
Pre	-14178
RAs	-14179
Ren	-14180
SHA	-14181
SOW	-14182
She	-14183
TAC	-14184
TEG	-14185
TIU	-14186
USI	-14187
VIR	-14188
XML	-14189
Yet	-14190
\.1	-14191
_%5	-14192
_||	-14193
aig	-14194
alM	-14195
atz	-14196
avg	-14197
avy	-14198
axx	-14199
ESP	-14200
GPT	-14201
IVR	-14202
MUN	-14203
Non	-14204
Per	-14205
Tin	-14206
VEL	-14207
Wer	-14208
ado	-14209
bon	-14210
cel	-14211
ctl	-14212
die	-14213
dig	-14214
dns	-14215
ean	-14216
eco	-14217
emi	-14218
era	-14219
eus	-14220
fet	-14221
fin	-14222
gie	-14223
hua	-14224
hur	-14225
hus	-14226
hyr	-14227
iTM	-14228
igm	-14229
igo	-14230
igr	-14231
ils	-14232
imE	-14233
ino	-14234
irm	-14235
iry	-14236
itf	-14237
iva	-14238
joy	-14239
kes	-14240
key	-14241
kgv	-14242
kin	-14243
lam	-14244
lat	-14245
lay	-14246
lla	-14247
mac	-14248
mis	-14249
nes	-14250
nin	-14251
ocs	-14252
oll	-14253
ool	-14254
pad	-14255
pho	-14256
ric	-14257
ste	-14258
tCr	-14259
ths	-14260
tog	-14261
udp	-14262
uer	-14263
ups	-14264
uth	-14265
uts	-14266
vch	-14267
xer	-14268
ync	-14269
zer	-14270
▁'/	-14271
▁(4	-14272
▁,”	-14273
▁-2	-14274
▁-3	-14275
▁-5	-14276
▁-?	-14277
▁1’	-14278
▁44	-14279
▁89	-14280
▁AB	-14281
▁BI	-14282
▁CQ	-14283
▁DK	-14284
▁GN	-14285
▁Ga	-14286
▁HE	-14287
▁LX	-14288
▁Ms	-14289
▁NT	-14290
▁Ns	-14291
▁Oh	-14292
▁PE	-14293
▁PU	-14294
▁Pa	-14295
▁Pi	-14296
▁SG	-14297
▁Sr	-14298
▁TE	-14299
/13	-14300
87)	-14301
Act	-14302
Bre	-14303
Cat	-14304
ECC	-14305
GCP	-14306
Gen	-14307
NDS	-14308
RAT	-14309
abo	-14310
dip	-14311
enP	-14312
enV	-14313
enn	-14314
imb	-14315
imr	-14316
itc	-14317
lac	-14318
oor	-14319
ora	-14320
phe	-14321
ref	-14322
▁2”	-14323
▁AD	-14324
▁ML	-14325
▁TX	-14326
▁UA	-14327
▁WD	-14328
▁ax	-14329
▁ca	-14330
▁db	-14331
▁dl	-14332
▁eq	-14333
▁ga	-14334
▁kn	-14335
▁pa	-14336
▁pe	-14337
▁sI	-14338
▁sa	-14339
▁tc	-14340
▁‘/	-14341
()',	-14342
,000	-14343
-1.8	-14344
-239	-14345
-3.5	-14346
.*)$	-14347
...)	-14348
.200	-14349
.368	-14350
.50.	-14351
.742	-14352
/1.1	-14353
/4/.	-14354
/5/.	-14355
0/13	-14356
014)	-14357
018)	-14358
2018	-14359
366,	-14360
4170	-14361
70-7	-14362
7024	-14363
7365	-14364
9414	-14365
987)	-14366
APIs	-14367
Apps	-14368
BPDU	-14369
Beui	-14370
Card	-14371
Copy	-14372
Cree	-14373
Dark	-14374
Deep	-14375
Exec	-14376
FHSS	-14377
GSEC	-14378
GhlT	-14379
HPKP	-14380
Hizb	-14381
IMEL	-14382
ISAK	-14383
ITAL	-14384
Live	-14385
Look	-14386
Made	-14387
OPEF	-14388
Ohpe	-14389
PACS	-14390
PDoS	-14391
PLCs	-14392
Paas	-14393
Ping	-14394
Roku	-14395
SSAR	-14396
Scar	-14397
Tank	-14398
ZeuS	-14399
'--	-14400
Bro	-14401
Can	-14402
FET	-14403
Hel	-14404
ISI	-14405
Max	-14406
edo	-14407
ica	-14408
ico	-14409
icu	-14410
itM	-14411
xic	-14412
▁CO	-14413
▁ED	-14414
▁Hy	-14415
▁vu	-14416
Help	-14417
abed	-14418
aded	-14419
akam	-14420
alle	-14421
alli	-14422
amou	-14423
apse	-14424
arit	-14425
arks	-14426
artb	-14427
atar	-14428
aten	-14429
atis	-14430
atiz	-14431
bank	-14432
bear	-14433
bing	-14434
bone	-14435
both	-14436
boul	-14437
cale	-14438
cine	-14439
ctor	-14440
ders	-14441
drop	-14442
econ	-14443
edRA	-14444
enrn	-14445
eper	-14446
erce	-14447
eren	-14448
eris	-14449
eses	-14450
esis	-14451
gled	-14452
head	-14453
heed	-14454
held	-14455
high	-14456
hmed	-14457
iang	-14458
icad	-14459
iced	-14460
iduc	-14461
ijaz	-14462
inar	-14463
iner	-14464
inia	-14465
init	-14466
isis	-14467
ivan	-14468
ixed	-14469
jour	-14470
land	-14471
leed	-14472
lets	-14473
llan	-14474
loat	-14475
logy	-14476
modo	-14477
much	-14478
ocks	-14479
oing	-14480
olac	-14481
olin	-14482
oned	-14483
onet	-14484
ornk	-14485
path	-14486
plus	-14487
rack	-14488
ralh	-14489
rest	-14490
ropy	-14491
rost	-14492
tion	-14493
ubis	-14494
ulsi	-14495
umed	-14496
used	-14497
uted	-14498
vOps	-14499
/19	-14500
FIS	-14501
Joh	-14502
SOA	-14503
Xub	-14504
acu	-14505
leb	-14506
nax	-14507
ugu	-14508
▁SU	-14509
▁Sl	-14510
▁bu	-14511
▁dp	-14512
▁et	-14513
▁nc	-14514
▁os	-14515
▁pf	-14516
1;',	-14517
92.0	-14518
CSPs	-14519
John	-14520
List	-14521
OLOG	-14522
TCOM	-14523
aled	-14524
anda	-14525
apes	-14526
just	-14527
onar	-14528
reet	-14529
roat	-14530
verg	-14531
will	-14532
wtug	-14533
ybil	-14534
year	-14535
zing	-14536
▁(*)	-14537
▁(50	-14538
▁(_)	-14539
▁1.7	-14540
▁161	-14541
▁2-4	-14542
▁2/3	-14543
▁4).	-14544
▁4/.	-14545
▁421	-14546
▁48-	-14547
▁5.5	-14548
▁555	-14549
▁64-	-14550
▁69.	-14551
▁768	-14552
▁80:	-14553
▁99.	-14554
▁AMD	-14555
▁Ach	-14556
▁Ago	-14557
▁Ali	-14558
▁Amb	-14559
▁Bar	-14560
▁Bat	-14561
▁Bes	-14562
▁Blo	-14563
▁Bud	-14564
▁CRI	-14565
▁CTI	-14566
▁Cal	-14567
▁Cas	-14568
▁Cov	-14569
▁Dan	-14570
▁Dat	-14571
▁Dum	-14572
▁Dut	-14573
▁EAP	-14574
▁ECH	-14575
▁EVO	-14576
▁EXT	-14577
▁Eli	-14578
▁Fiv	-14579
▁Fre	-14580
▁GIN	-14581
▁Hit	-14582
▁Hop	-14583
▁IDE	-14584
▁IRC	-14585
▁Joe	-14586
▁Jos	-14587
▁Jug	-14588
▁Los	-14589
▁MAT	-14590
▁MHA	-14591
▁MHz	-14592
▁MIN	-14593
▁NAX	-14594
▁PER	-14595
▁PGP	-14596
▁PRO	-14597
▁Pac	-14598
▁Pip	-14599
CPA	-14600
Rps	-14601
arg	-14602
aru	-14603
ecd	-14604
sig	-14605
usX	-14606
▁AM	-14607
▁MU	-14608
,382	-14609
5.12	-14610
70-2	-14611
CCPA	-14612
IGLE	-14613
adds	-14614
apon	-14615
esGo	-14616
gent	-14617
lins	-14618
outh	-14619
usin	-14620
▁219	-14621
▁Car	-14622
▁Iod	-14623
▁Pee	-14624
▁Piv	-14625
▁RIG	-14626
▁RTL	-14627
▁RTP	-14628
▁Ric	-14629
▁Rud	-14630
▁SCT	-14631
▁SDV	-14632
▁SPE	-14633
▁SVC	-14634
▁Sig	-14635
▁Sir	-14636
▁Sit	-14637
▁Sle	-14638
▁SoC	-14639
▁UPD	-14640
▁UTP	-14641
▁Unm	-14642
▁VET	-14643
▁VGA	-14644
▁Viz	-14645
▁WAL	-14646
▁WDS	-14647
▁Wal	-14648
▁Yag	-14649
▁anc	-14650
▁ann	-14651
▁api	-14652
▁ata	-14653
▁bar	-14654
▁bed	-14655
▁ber	-14656
▁bir	-14657
▁bol	-14658
▁doc	-14659
▁dtd	-14660
▁fat	-14661
▁gar	-14662
▁gas	-14663
▁gid	-14664
▁git	-14665
▁har	-14666
▁hop	-14667
▁kar	-14668
▁lad	-14669
▁lco	-14670
▁mel	-14671
▁mor	-14672
▁msg	-14673
▁mug	-14674
▁nor	-14675
▁piv	-14676
▁pub	-14677
▁pun	-14678
▁pus	-14679
▁qAB	-14680
▁rud	-14681
▁sil	-14682
▁sum	-14683
▁tha	-14684
▁tox	-14685
▁tub	-14686
▁unf	-14687
▁unm	-14688
▁wat	-14689
▁wet	-14690
▁wil	-14691
▁won	-14692
▁wro	-14693
▁“1.	-14694
▁“2”	-14695
▁“5”	-14696
,211,	-14697
-2026	-14698
.0.22	-14699
45.	-14700
All	-14701
Bay	-14702
Bur	-14703
Mac	-14704
doc	-14705
ibe	-14706
llo	-14707
lly	-14708
tmp	-14709
uri	-14710
vbs	-14711
▁):	-14712
▁68	-14713
▁IO	-14714
▁Ip	-14715
▁PO	-14716
▁_|	-14717
22.0	-14718
CESF	-14719
ETHE	-14720
ITAD	-14721
Mess	-14722
acon	-14723
docm	-14724
lege	-14725
▁gro	-14726
-005.	-14727
-050.	-14728
104-8	-14729
22.08	-14730
3-99.	-14731
72.16	-14732
8,000	-14733
:1500	-14734
BaatU	-14735
Burka	-14736
CLUSI	-14737
Clear	-14738
DLIST	-14739
ECURE	-14740
EROUS	-14741
Every	-14742
FILES	-14743
FSens	-14744
ISACs	-14745
Islam	-14746
KRACK	-14747
LnDAP	-14748
Matic	-14749
Plain	-14750
Power	-14751
RATEG	-14752
Sheep	-14753
Sight	-14754
Trunk	-14755
Watch	-14756
\.168	-14757
acket	-14758
aders	-14759
ailer	-14760
akley	-14761
alert	-14762
allel	-14763
amped	-14764
anges	-14765
apons	-14766
apses	-14767
assan	-14768
athed	-14769
audit	-14770
avors	-14771
being	-14772
clear	-14773
copic	-14774
could	-14775
cyber	-14776
eared	-14777
ecter	-14778
ecurs	-14779
elity	-14780
eping	-14781
erPro	-14782
eters	-14783
etime	-14784
eving	-14785
ghost	-14786
haned	-14787
hecks	-14788
hello	-14789
icals	-14790
iched	-14791
icion	-14792
iders	-14793
idesp	-14794
iends	-14795
ifcal	-14796
ileak	-14797
inces	-14798
inded	-14799
5%8	-14800
565	-14801
IDs	-14802
MER	-14803
Sur	-14804
asa	-14805
asi	-14806
eas	-14807
fas	-14808
pur	-14809
rii	-14810
uty	-14811
[...]
